{
  "version": "1.0",
  "truncation": null,
  "padding": null,
  "added_tokens": [
    {
      "id": 0,
      "content": "<pad>",
      "single_word": false,
      "lstrip": false,
      "rstrip": false,
      "normalized": false,
      "special": true
    },
    {
      "id": 1,
      "content": "<bos>",
      "single_word": false,
      "lstrip": false,
      "rstrip": false,
      "normalized": false,
      "special": true
    },
    {
      "id": 2,
      "content": "<eos>",
      "single_word": false,
      "lstrip": false,
      "rstrip": false,
      "normalized": false,
      "special": true
    },
    {
      "id": 3,
      "content": "<unk>",
      "single_word": false,
      "lstrip": false,
      "rstrip": false,
      "normalized": false,
      "special": true
    }
  ],
  "normalizer": null,
  "pre_tokenizer": {
    "type": "ByteLevel",
    "add_prefix_space": false,
    "trim_offsets": true,
    "use_regex": true
  },
  "post_processor": null,
  "decoder": {
    "type": "ByteLevel",
    "add_prefix_space": true,
    "trim_offsets": true,
    "use_regex": true
  },
  "model": {
    "type": "BPE",
    "dropout": null,
    "unk_token": "<unk>",
    "continuing_subword_prefix": null,
    "end_of_word_suffix": null,
    "fuse_unk": false,
    "byte_fallback": false,
    "ignore_merges": false,
    "vocab": {
      "<pad>": 0,
      "<bos>": 1,
      "<eos>": 2,
      "<unk>": 3,
      "!": 4,
      "\"": 5,
      "#": 6,
      "$": 7,
      "%": 8,
      "&": 9,
      "'": 10,
      "(": 11,
      ")": 12,
      "*": 13,
      "+": 14,
      ",": 15,
      "-": 16,
      ".": 17,
      "/": 18,
      "0": 19,
      "1": 20,
      "2": 21,
      "3": 22,
      "4": 23,
      "5": 24,
      "6": 25,
      "7": 26,
      "8": 27,
      "9": 28,
      ":": 29,
      ";": 30,
      "<": 31,
      "=": 32,
      ">": 33,
      "?": 34,
      "@": 35,
      "A": 36,
      "B": 37,
      "C": 38,
      "D": 39,
      "E": 40,
      "F": 41,
      "G": 42,
      "H": 43,
      "I": 44,
      "J": 45,
      "K": 46,
      "L": 47,
      "M": 48,
      "N": 49,
      "O": 50,
      "P": 51,
      "Q": 52,
      "R": 53,
      "S": 54,
      "T": 55,
      "U": 56,
      "V": 57,
      "W": 58,
      "X": 59,
      "Y": 60,
      "Z": 61,
      "[": 62,
      "\\": 63,
      "]": 64,
      "^": 65,
      "_": 66,
      "`": 67,
      "a": 68,
      "b": 69,
      "c": 70,
      "d": 71,
      "e": 72,
      "f": 73,
      "g": 74,
      "h": 75,
      "i": 76,
      "j": 77,
      "k": 78,
      "l": 79,
      "m": 80,
      "n": 81,
      "o": 82,
      "p": 83,
      "q": 84,
      "r": 85,
      "s": 86,
      "t": 87,
      "u": 88,
      "v": 89,
      "w": 90,
      "x": 91,
      "y": 92,
      "z": 93,
      "{": 94,
      "|": 95,
      "}": 96,
      "~": 97,
      "¡": 98,
      "¢": 99,
      "£": 100,
      "¤": 101,
      "¥": 102,
      "¦": 103,
      "§": 104,
      "¨": 105,
      "©": 106,
      "ª": 107,
      "«": 108,
      "¬": 109,
      "®": 110,
      "¯": 111,
      "°": 112,
      "±": 113,
      "²": 114,
      "³": 115,
      "´": 116,
      "µ": 117,
      "¶": 118,
      "·": 119,
      "¸": 120,
      "¹": 121,
      "º": 122,
      "»": 123,
      "¼": 124,
      "½": 125,
      "¾": 126,
      "¿": 127,
      "Â": 128,
      "Ã": 129,
      "Ä": 130,
      "Å": 131,
      "Æ": 132,
      "É": 133,
      "Ê": 134,
      "Ë": 135,
      "Ì": 136,
      "Î": 137,
      "Ï": 138,
      "Ð": 139,
      "Ñ": 140,
      "Ô": 141,
      "Õ": 142,
      "Ö": 143,
      "Ø": 144,
      "Ù": 145,
      "Ú": 146,
      "á": 147,
      "â": 148,
      "ã": 149,
      "ä": 150,
      "å": 151,
      "æ": 152,
      "ç": 153,
      "è": 154,
      "é": 155,
      "ê": 156,
      "ë": 157,
      "ì": 158,
      "ï": 159,
      "ð": 160,
      "ĉ": 161,
      "Ċ": 162,
      "Ġ": 163,
      "Ģ": 164,
      "ģ": 165,
      "Ĥ": 166,
      "ĥ": 167,
      "Ħ": 168,
      "ħ": 169,
      "Ĩ": 170,
      "ĩ": 171,
      "Ī": 172,
      "ī": 173,
      "Ĭ": 174,
      "ĭ": 175,
      "Į": 176,
      "į": 177,
      "İ": 178,
      "ı": 179,
      "Ĳ": 180,
      "ĳ": 181,
      "Ĵ": 182,
      "ĵ": 183,
      "Ķ": 184,
      "ķ": 185,
      "ĸ": 186,
      "Ĺ": 187,
      "ĺ": 188,
      "Ļ": 189,
      "ļ": 190,
      "Ľ": 191,
      "ľ": 192,
      "Ŀ": 193,
      "ŀ": 194,
      "Ł": 195,
      "ł": 196,
      "Ń": 197,
      "ĠĠ": 198,
      "Ġt": 199,
      "he": 200,
      "in": 201,
      "Ġa": 202,
      "re": 203,
      "Ġthe": 204,
      "on": 205,
      "Ġs": 206,
      "er": 207,
      "at": 208,
      "Ġc": 209,
      "or": 210,
      "Ġ*": 211,
      "it": 212,
      "es": 213,
      "Ġw": 214,
      "al": 215,
      "en": 216,
      "Ġf": 217,
      "ing": 218,
      "ou": 219,
      "is": 220,
      "ĊĠĠ": 221,
      "Ġb": 222,
      "Ġm": 223,
      "Ġp": 224,
      "an": 225,
      "Ġd": 226,
      "ion": 227,
      "le": 228,
      "ar": 229,
      "ĊĠĠĠ": 230,
      "ed": 231,
      "Ġto": 232,
      "Ġan": 233,
      "ro": 234,
      "Ġo": 235,
      "ct": 236,
      "Ġre": 237,
      "Ġn": 238,
      "Ġin": 239,
      "st": 240,
      "ic": 241,
      "Ġe": 242,
      "Ġ(": 243,
      "Ġh": 244,
      "Ġand": 245,
      "**": 246,
      "ly": 247,
      "Ġl": 248,
      "Ġof": 249,
      "Ġ=": 250,
      "Ġis": 251,
      "et": 252,
      "ve": 253,
      "ent": 254,
      "ac": 255,
      "im": 256,
      "ĠT": 257,
      "Ġth": 258,
      "as": 259,
      "ut": 260,
      "Ġ1": 261,
      "th": 262,
      "Ġ**": 263,
      "Ġy": 264,
      "ur": 265,
      "ĠI": 266,
      "om": 267,
      "ay": 268,
      "ĠĠĠĠ": 269,
      "ow": 270,
      "id": 271,
      "Ġg": 272,
      "us": 273,
      "ll": 274,
      "Ġst": 275,
      "ig": 276,
      "Ġit": 277,
      "Ġfor": 278,
      "ot": 279,
      "un": 280,
      ":**": 281,
      "ĠS": 282,
      "ra": 283,
      "ol": 284,
      "Ġyou": 285,
      "ver": 286,
      "ation": 287,
      "um": 288,
      "ce": 289,
      "if": 290,
      "Ġ2": 291,
      "ul": 292,
      "ate": 293,
      "ad": 294,
      "Ġbe": 295,
      "ĠA": 296,
      "00": 297,
      "qu": 298,
      "ĠThe": 299,
      "Ġ$": 300,
      "Ġ\"": 301,
      "Ġon": 302,
      "ith": 303,
      "ive": 304,
      "Ġex": 305,
      "ĊĠĠĠĠĠĠ": 306,
      "ĠC": 307,
      "em": 308,
      "igh": 309,
      "'s": 310,
      "il": 311,
      "ib": 312,
      "pl": 313,
      "ter": 314,
      "ction": 315,
      "am": 316,
      "Ġwith": 317,
      "Ġpro": 318,
      "ep": 319,
      "ĠP": 320,
      "Ġ-": 321,
      "Ġthat": 322,
      "ir": 323,
      "Ġus": 324,
      "ke": 325,
      "ri": 326,
      "oun": 327,
      "ight": 328,
      "Ġ`": 329,
      "od": 330,
      "Ġor": 331,
      "ge": 332,
      "ĊĠĠĠĠĠĠĠ": 333,
      "se": 334,
      ").": 335,
      "est": 336,
      "Ġne": 337,
      "ch": 338,
      "Ġcon": 339,
      "Ġhe": 340,
      "Ġ+": 341,
      "pp": 342,
      "ers": 343,
      "ain": 344,
      "Ġv": 345,
      "pt": 346,
      "Ġwe": 347,
      "out": 348,
      "ld": 349,
      "ĠF": 350,
      "Ġ3": 351,
      "and": 352,
      "Ġr": 353,
      "Ġwh": 354,
      "Ġ\\": 355,
      "Ġcom": 356,
      "Ġsh": 357,
      "ink": 358,
      "Ġas": 359,
      "âĢ": 360,
      "ist": 361,
      "ore": 362,
      "urn": 363,
      "ime": 364,
      "Ġle": 365,
      "ĠW": 366,
      "ust": 367,
      "ef": 368,
      "ab": 369,
      "ck": 370,
      "pe": 371,
      "ue": 372,
      "ure": 373,
      "ine": 374,
      "``": 375,
      "all": 376,
      "sion": 377,
      "ĠM": 378,
      "ant": 379,
      "Ġat": 380,
      "iz": 381,
      "our": 382,
      "ide": 383,
      "ity": 384,
      "ĠB": 385,
      "ple": 386,
      "Ġ0": 387,
      "think": 388,
      "Ġwor": 389,
      "ĠE": 390,
      "ĠL": 391,
      "ill": 392,
      "te": 393,
      "Ġif": 394,
      "os": 395,
      "Ġyour": 396,
      "el": 397,
      "ort": 398,
      "Ġret": 399,
      "ĠR": 400,
      "Ġare": 401,
      "ĠD": 402,
      "ould": 403,
      "ds": 404,
      "Ġro": 405,
      "Ġreturn": 406,
      "ment": 407,
      "up": 408,
      "rom": 409,
      "ĠO": 410,
      "day": 411,
      "Ġlo": 412,
      "one": 413,
      "put": 414,
      "ave": 415,
      "ft": 416,
      "Ġme": 417,
      "Ġbut": 418,
      "Ġfun": 419,
      "Ġ5": 420,
      "ear": 421,
      "end": 422,
      "ĠN": 423,
      "lo": 424,
      "ally": 425,
      "iv": 426,
      "ess": 427,
      "ci": 428,
      "The": 429,
      "ĠY": 430,
      "art": 431,
      "ack": 432,
      "ec": 433,
      "ak": 434,
      "Ġrec": 435,
      "Ġtime": 436,
      "Ġch": 437,
      "ite": 438,
      ":*": 439,
      "Ġ4": 440,
      "act": 441,
      "inal": 442,
      "ard": 443,
      "res": 444,
      "Ġfrom": 445,
      "ĠH": 446,
      "ag": 447,
      "Ġj": 448,
      "int": 449,
      "Ġal": 450,
      "her": 451,
      "Ġfunction": 452,
      "ect": 453,
      "ach": 454,
      "ame": 455,
      "Ġby": 456,
      "Ġcan": 457,
      "Ġnot": 458,
      "ast": 459,
      "Ġco": 460,
      "Ġun": 461,
      "ice": 462,
      "Ġdo": 463,
      "emo": 464,
      "orm": 465,
      "ult": 466,
      "ative": 467,
      "Ġsu": 468,
      "Ġhave": 469,
      "xt": 470,
      "red": 471,
      "Ġim": 472,
      "umb": 473,
      "ren": 474,
      ".\"": 475,
      "Ġthis": 476,
      "age": 477,
      "yth": 478,
      "Ġwas": 479,
      "ase": 480,
      "Ġfib": 481,
      "Ġres": 482,
      "du": 483,
      "Ġint": 484,
      "ile": 485,
      "Ġtr": 486,
      "ud": 487,
      "ind": 488,
      "Ġsc": 489,
      "Ġpl": 490,
      "Ġk": 491,
      "Ġso": 492,
      "ie": 493,
      "ount": 494,
      "gh": 495,
      "Ġqu": 496,
      "Ġneed": 497,
      "ater": 498,
      "Ġwhe": 499,
      "Ġen": 500,
      "ays": 501,
      "Ġout": 502,
      "'t": 503,
      "Ġexpl": 504,
      "Ġmemo": 505,
      "ode": 506,
      "av": 507,
      "Ġsp": 508,
      "der": 509,
      "Ġnumb": 510,
      "ial": 511,
      "Ġup": 512,
      "Ġ'": 513,
      "ĠTh": 514,
      "ike": 515,
      "ical": 516,
      "Ġbo": 517,
      "Ġrecur": 518,
      "Ġper": 519,
      "ound": 520,
      "):": 521,
      "ython": 522,
      "row": 523,
      "cl": 524,
      "op": 525,
      "Ġab": 526,
      "ass": 527,
      "ror": 528,
      "ise": 529,
      "per": 530,
      "Ġmy": 531,
      "ary": 532,
      "ven": 533,
      "ough": 534,
      "ace": 535,
      "ĠIn": 536,
      "</": 537,
      "âĢĶ": 538,
      "ok": 539,
      "ake": 540,
      "Ġar": 541,
      "ĠG": 542,
      "able": 543,
      "Ġse": 544,
      "ance": 545,
      "ath": 546,
      "Ġwill": 547,
      "ru": 548,
      "ĠYes": 549,
      "ire": 550,
      "50": 551,
      "Ġcode": 552,
      "```": 553,
      "ĠĊ": 554,
      "ence": 555,
      "cul": 556,
      "ies": 557,
      "ome": 558,
      "Ġ10": 559,
      "Ġthey": 560,
      "ĠSt": 561,
      "'ll": 562,
      "rite": 563,
      "Ġcl": 564,
      "Ġher": 565,
      "aus": 566,
      "),": 567,
      "dd": 568,
      "Ġem": 569,
      "ff": 570,
      "Ġapp": 571,
      "..": 572,
      "Ġver": 573,
      "Ġtw": 574,
      "nal": 575,
      "ory": 576,
      "alcul": 577,
      "ree": 578,
      "heck": 579,
      "led": 580,
      "Ġdis": 581,
      "old": 582,
      "ache": 583,
      "Ġhand": 584,
      "Ġlike": 585,
      "Ġspe": 586,
      "Ġjust": 587,
      "000": 588,
      "are": 589,
      "ich": 590,
      "own": 591,
      "ang": 592,
      "Ġte": 593,
      "ans": 594,
      "Ġwater": 595,
      "Ġval": 596,
      "âĢĻ": 597,
      "Ġcle": 598,
      "ick": 599,
      "Ġpr": 600,
      "Ġinto": 601,
      "wer": 602,
      "ap": 603,
      "Ġuser": 604,
      "tal": 605,
      "og": 606,
      "Ġde": 607,
      "low": 608,
      "Ġke": 609,
      "Ġ20": 610,
      "Ġcall": 611,
      "Ġac": 612,
      "Ġwords": 613,
      "Ġ[": 614,
      "Ġall": 615,
      "fore": 616,
      "ip": 617,
      "raft": 618,
      "rac": 619,
      "ata": 620,
      "Ġusing": 621,
      "vide": 622,
      "ĠLet": 623,
      "olum": 624,
      ")`": 625,
      "ĠRe": 626,
      "ail": 627,
      "Ġ6": 628,
      "rent": 629,
      "ĠIf": 630,
      "--": 631,
      "Ġman": 632,
      "Ġimp": 633,
      "ated": 634,
      "ause": 635,
      "Ġfe": 636,
      "Ġtotal": 637,
      "ization": 638,
      "Ġ12": 639,
      "Ġra": 640,
      "acci": 641,
      "onacci": 642,
      "ĊĠĠĠĠĠĠĠĠĠĠ": 643,
      "Ġuse": 644,
      "Ġover": 645,
      "Ġag": 646,
      "Ġone": 647,
      "Ġ/": 648,
      "ze": 649,
      "ĠV": 650,
      "swer": 651,
      "Ġcomple": 652,
      "app": 653,
      "}{": 654,
      "ous": 655,
      "imes": 656,
      "ong": 657,
      "Ġpo": 658,
      "frac": 659,
      "ks": 660,
      "Ġyear": 661,
      "Ġam": 662,
      "clud": 663,
      "$.": 664,
      "pon": 665,
      "Ġabout": 666,
      "ĠIt": 667,
      "Ġhas": 668,
      "ince": 669,
      "Ġnumber": 670,
      "ify": 671,
      "sv": 672,
      "ign": 673,
      "so": 674,
      "Ġno": 675,
      "Ġequ": 676,
      "ues": 677,
      "Ġrow": 678,
      "Ġgo": 679,
      "Ġmin": 680,
      "Ġthan": 681,
      "Ġrecursion": 682,
      "ject": 683,
      "orre": 684,
      "ates": 685,
      "ph": 686,
      "Ġcont": 687,
      "irst": 688,
      "ting": 689,
      "ales": 690,
      "Ġ->": 691,
      "Ġresult": 692,
      "Ġits": 693,
      "Ġtwo": 694,
      "Ġwould": 695,
      "Ġhour": 696,
      "Ġcar": 697,
      "Ġread": 698,
      "yze": 699,
      "ition": 700,
      "Ġiter": 701,
      "very": 702,
      "Ġ7": 703,
      "Ġexact": 704,
      "Ġhad": 705,
      "form": 706,
      "Ġnew": 707,
      "ĠU": 708,
      "Ġeach": 709,
      "Ġsol": 710,
      "ble": 711,
      "Ġstep": 712,
      "estion": 713,
      "He": 714,
      "Ġhow": 715,
      "Ġ9": 716,
      "Ġwhich": 717,
      "orrect": 718,
      "Anal": 719,
      "St": 720,
      "Ġdef": 721,
      "ens": 722,
      "ature": 723,
      "ring": 724,
      "ually": 725,
      "ĠWe": 726,
      "Ġcur": 727,
      "Analyze": 728,
      "Ġcomput": 729,
      "Ġsim": 730,
      "now": 731,
      "ry": 732,
      "Ġshe": 733,
      "Ġmet": 734,
      "Ġbu": 735,
      "Ġback": 736,
      "otal": 737,
      "get": 738,
      "Ġanswer": 739,
      "ĠSo": 740,
      "Re": 741,
      "10": 742,
      "Ġsame": 743,
      "Ġ<": 744,
      "Ġour": 745,
      "ient": 746,
      "Ġbec": 747,
      "its": 748,
      "Ġclear": 749,
      "Ġshould": 750,
      "Ġmo": 751,
      "Ġpre": 752,
      "ĊĊĠĠĠ": 753,
      "ark": 754,
      "fe": 755,
      "ific": 756,
      "ait": 757,
      "Ġwhere": 758,
      "Ġform": 759,
      "rror": 760,
      "quest": 761,
      "Ġleft": 762,
      "fib": 763,
      "text": 764,
      "ces": 765,
      "12": 766,
      "ange": 767,
      "ub": 768,
      "Ġday": 769,
      "}$": 770,
      "Ġbefore": 771,
      "ations": 772,
      "Ġlist": 773,
      "Error": 774,
      "iginal": 775,
      "Ġlet": 776,
      "Ġonly": 777,
      "Ġ8": 778,
      "ning": 779,
      "les": 780,
      "ating": 781,
      "ys": 782,
      "che": 783,
      "Ġbre": 784,
      "onth": 785,
      "Ġmore": 786,
      "ize": 787,
      "Ġprovide": 788,
      "ript": 789,
      "fter": 790,
      "Ġversion": 791,
      "Ġph": 792,
      "Ġright": 793,
      "Ġiterative": 794,
      "anation": 795,
      "ish": 796,
      "Ġtheir": 797,
      "Ġwant": 798,
      "Ġpos": 799,
      "ĠPro": 800,
      "Draft": 801,
      "Ġsm": 802,
      "Ġfirst": 803,
      "Ġdoes": 804,
      "ution": 805,
      "ments": 806,
      "ict": 807,
      "rt": 808,
      "ĠPython": 809,
      "##": 810,
      "Ġthem": 811,
      "ax": 812,
      "Ġthen": 813,
      "sing": 814,
      "We": 815,
      "Ġpres": 816,
      "duct": 817,
      "Ġcheck": 818,
      "Ġmemoization": 819,
      "iew": 820,
      "ĠBut": 821,
      "we": 822,
      "Ġrem": 823,
      "Ġany": 824,
      "Ġwhen": 825,
      "Ġdes": 826,
      "Ġboth": 827,
      "Let": 828,
      "ãģ": 829,
      "Ġfinal": 830,
      "ints": 831,
      "python": 832,
      "qrt": 833,
      "Ġfo": 834,
      "Here": 835,
      "ĊĠĠĠĠĠĠĠĠĠĠĠ": 836,
      "Ġyears": 837,
      "Ġdata": 838,
      "ving": 839,
      "pr": 840,
      "read": 841,
      "lock": 842,
      "Ġinter": 843,
      "ĠCon": 844,
      "rough": 845,
      "ord": 846,
      "teg": 847,
      "rit": 848,
      "Ġappro": 849,
      "Ġoriginal": 850,
      "Ġadd": 851,
      "Ġthere": 852,
      "ram": 853,
      "Ġcorrect": 854,
      "Ġsk": 855,
      "def": 856,
      "verage": 857,
      "ized": 858,
      "ĠFib": 859,
      "Ġwork": 860,
      "clude": 861,
      "Ġsub": 862,
      "erg": 863,
      "Ġoff": 864,
      "Ġdays": 865,
      "be": 866,
      "Ġfl": 867,
      "Ġwhat": 868,
      "Ġset": 869,
      "Ġmust": 870,
      "ĠK": 871,
      "Ġminut": 872,
      "ne": 873,
      "ĠFibonacci": 874,
      "Ġact": 875,
      "ĠEx": 876,
      "pen": 877,
      "']": 878,
      "Ġagain": 879,
      "ĠThis": 880,
      "the": 881,
      "vel": 882,
      "alculate": 883,
      "Ġexplain": 884,
      "Ġhis": 885,
      "Ġgr": 886,
      "Ġhours": 887,
      "Ġafter": 888,
      "Ġdown": 889,
      "ss": 890,
      "atch": 891,
      "Ġwho": 892,
      "sqrt": 893,
      "Ġcomm": 894,
      "Ġcould": 895,
      "['": 896,
      "ther": 897,
      "line": 898,
      "20": 899,
      "Ġnow": 900,
      "Ġstart": 901,
      "Ġexactly": 902,
      "ĠJ": 903,
      "cess": 904,
      "Ġkeep": 905,
      "ual": 906,
      "Ġ==": 907,
      "Ġcount": 908,
      "ix": 909,
      "Ġcost": 910,
      "Ġdisc": 911,
      "Ġmany": 912,
      "Ġ#": 913,
      "olume": 914,
      "Ġsec": 915,
      "Ġmis": 916,
      "venue": 917,
      "Step": 918,
      "Ġevery": 919,
      "Ġdec": 920,
      "Ġget": 921,
      "blem": 922,
      "Ġbecause": 923,
      "pect": 924,
      "val": 925,
      "Ġminutes": 926,
      "Ġshort": 927,
      "Ġgiv": 928,
      "Ġdire": 929,
      "Ġcurrent": 930,
      "Ġdr": 931,
      "**.": 932,
      "Ġflo": 933,
      "Ġinst": 934,
      "Ġ($": 935,
      "sive": 936,
      "Ġconst": 937,
      "ful": 938,
      "Ġexplanation": 939,
      "ention": 940,
      "gg": 941,
      "omet": 942,
      "Ġpers": 943,
      "Ġinteg": 944,
      "Ġprom": 945,
      "Ġdep": 946,
      "Ġsa": 947,
      "de": 948,
      "Ġthrough": 949,
      "')": 950,
      "âĢĳ": 951,
      "ĠRequest": 952,
      "Ġref": 953,
      "hen": 954,
      "port": 955,
      "view": 956,
      "Ġmil": 957,
      "pty": 958,
      "tern": 959,
      "Ġ30": 960,
      "Ġunder": 961,
      "Ġdist": 962,
      "akes": 963,
      "Ġalso": 964,
      "ility": 965,
      "Th": 966,
      "Ġthree": 967,
      "Ġtra": 968,
      "Ġquestion": 969,
      "Ġwhy": 970,
      "rief": 971,
      "Ġcomplex": 972,
      "Ġlook": 973,
      "Ġav": 974,
      "Ġpar": 975,
      "Ġknow": 976,
      "csv": 977,
      "15": 978,
      "itive": 979,
      "Ġ15": 980,
      "Ġ<=": 981,
      "Ġent": 982,
      "ond": 983,
      "Ġwithout": 984,
      "ential": 985,
      "Ġstill": 986,
      "Ġnumbers": 987,
      "Ġstand": 988,
      "Form": 989,
      "\".": 990,
      "If": 991,
      "ract": 992,
      "_{": 993,
      "Ġsy": 994,
      "Ġgre": 995,
      "ose": 996,
      "ene": 997,
      "Ġlight": 998,
      "ward": 999,
      "arm": 1000,
      "aking": 1001,
      "orrow": 1002,
      "ost": 1003,
      "cache": 1004,
      "Ġspec": 1005,
      "Ġwhile": 1006,
      "ics": 1007,
      "ott": 1008,
      "side": 1009,
      "ption": 1010,
      "times": 1011,
      "by": 1012,
      "wn": 1013,
      "Ġi": 1014,
      "ible": 1015,
      "ĠHow": 1016,
      "Ġside": 1017,
      "Ġbet": 1018,
      "fect": 1019,
      "Ġopen": 1020,
      "erm": 1021,
      "Ġmight": 1022,
      "Ġoutput": 1023,
      "hing": 1024,
      "ĠAl": 1025,
      "ings": 1026,
      "ari": 1027,
      "Ġbl": 1028,
      "...": 1029,
      "eng": 1030,
      "ĠState": 1031,
      "eo": 1032,
      "Ġtem": 1033,
      "Ġdi": 1034,
      "itial": 1035,
      "Ġconc": 1036,
      "?\"": 1037,
      "olog": 1038,
      "ergy": 1039,
      "light": 1040,
      "ved": 1041,
      "Ġempty": 1042,
      "Ġrun": 1043,
      "Ġ{": 1044,
      "Ġnext": 1045,
      "imit": 1046,
      "ĠYou": 1047,
      "In": 1048,
      "Ġcomp": 1049,
      "Ġclearly": 1050,
      "Ġel": 1051,
      "('": 1052,
      "Ġcalls": 1053,
      "idd": 1054,
      "Ġstate": 1055,
      "Ġsolution": 1056,
      "alue": 1057,
      "Ġmonth": 1058,
      "ĠWh": 1059,
      "Ġprompt": 1060,
      "Ġdid": 1061,
      "ĠPM": 1062,
      "ute": 1063,
      "ĠEn": 1064,
      "$$": 1065,
      "ically": 1066,
      "Ġele": 1067,
      "Ġad": 1068,
      "Ġrecursive": 1069,
      "Ġreal": 1070,
      "ild": 1071,
      "ĠHe": 1072,
      "Ġinc": 1073,
      "Ġmiles": 1074,
      "sure": 1075,
      "Ġlar": 1076,
      "**:": 1077,
      "Ġcache": 1078,
      "king": 1079,
      "ling": 1080,
      "yp": 1081,
      "Ġmod": 1082,
      "Ġshow": 1083,
      "ession": 1084,
      "aybe": 1085,
      "Ġpart": 1086,
      "riend": 1087,
      "SV": 1088,
      "lease": 1089,
      "less": 1090,
      "Ġvolume": 1091,
      "Ġvalues": 1092,
      "):**": 1093,
      "Ġlong": 1094,
      "ret": 1095,
      "way": 1096,
      "Ġtrans": 1097,
      "Drafting": 1098,
      "Ġhel": 1099,
      "ines": 1100,
      "Ġlog": 1101,
      "ĠTotal": 1102,
      "ors": 1103,
      "sum": 1104,
      "llow": 1105,
      "Ġfind": 1106,
      "alueError": 1107,
      "ents": 1108,
      "Qu": 1109,
      "Ġwrite": 1110,
      "Ġscript": 1111,
      "raph": 1112,
      "Ġreturns": 1113,
      "Ġline": 1114,
      "Ġequation": 1115,
      "Ġagainst": 1116,
      "Ġap": 1117,
      "Ġmake": 1118,
      "ood": 1119,
      "Ġapproach": 1120,
      "Ġold": 1121,
      "plac": 1122,
      "',": 1123,
      "Ġcol": 1124,
      "Final": 1125,
      "vers": 1126,
      "Ġ50": 1127,
      "ĠSince": 1128,
      "ĠFor": 1129,
      "rid": 1130,
      "Ġspace": 1131,
      "perature": 1132,
      "sales": 1133,
      "Ġsum": 1134,
      "ĠCSV": 1135,
      "Ġdet": 1136,
      "ptim": 1137,
      "Ġcomplexity": 1138,
      "ĠSh": 1139,
      "ross": 1140,
      "ves": 1141,
      "Ġvalue": 1142,
      "ull": 1143,
      "Ġlit": 1144,
      "Ġproblem": 1145,
      "Ġmat": 1146,
      "Ġturn": 1147,
      "Ġsays": 1148,
      "ek": 1149,
      "Ġbrief": 1150,
      "ĠAn": 1151,
      "Ġoun": 1152,
      "Ġsome": 1153,
      "Ġstring": 1154,
      "Ġeff": 1155,
      "Ġaverage": 1156,
      "99": 1157,
      "ied": 1158,
      "cur": 1159,
      "Ġreg": 1160,
      "Ġcsv": 1161,
      "hed": 1162,
      "ĠName": 1163,
      "Ġdel": 1164,
      "Ġcalcul": 1165,
      "Ġsomet": 1166,
      "pro": 1167,
      "ress": 1168,
      "Ġrespon": 1169,
      "ots": 1170,
      "Ġhum": 1171,
      "\",": 1172,
      "Ġmissing": 1173,
      "Ġx": 1174,
      "Ġfile": 1175,
      "sel": 1176,
      "ian": 1177,
      "100": 1178,
      "olumn": 1179,
      "terday": 1180,
      "ĠNe": 1181,
      "oc": 1182,
      "ron": 1183,
      "Ġspecific": 1184,
      "ool": 1185,
      "Ġcr": 1186,
      "Ġ>": 1187,
      "Ġob": 1188,
      "Ġwere": 1189,
      "35": 1190,
      "ides": 1191,
      "Ġgiven": 1192,
      "ĠNo": 1193,
      "ator": 1194,
      "ength": 1195,
      "Ġlimit": 1196,
      "ĠExpl": 1197,
      "ead": 1198,
      "ĠâĢĶ": 1199,
      "Ġext": 1200,
      "ruct": 1201,
      "ulate": 1202,
      ")=": 1203,
      ".,": 1204,
      "ters": 1205,
      "Ġcompute": 1206,
      "Ġ```": 1207,
      "Ġend": 1208,
      "Ġmu": 1209,
      "ault": 1210,
      "Ġavo": 1211,
      "Ġrequ": 1212,
      "Ġyes": 1213,
      "rop": 1214,
      "Ġprice": 1215,
      "Ġtoday": 1216,
      "ex": 1217,
      "30": 1218,
      "Ġperson": 1219,
      "Ġbreak": 1220,
      "Ġimpro": 1221,
      "ily": 1222,
      "entify": 1223,
      "`.": 1224,
      "cept": 1225,
      "Ġ$\\": 1226,
      "write": 1227,
      "Ġmeans": 1228,
      "aya": 1229,
      "----": 1230,
      "Ġcolumn": 1231,
      "Ġhome": 1232,
      "Con": 1233,
      "Ġer": 1234,
      "aining": 1235,
      "stand": 1236,
      "ience": 1237,
      "date": 1238,
      "ather": 1239,
      "lection": 1240,
      "Ġcity": 1241,
      "ability": 1242,
      "Ġweight": 1243,
      "Ġenergy": 1244,
      "Ġfast": 1245,
      "ĠAM": 1246,
      "Ġsqu": 1247,
      "Ġbeh": 1248,
      "Ġfeel": 1249,
      "atur": 1250,
      "ser": 1251,
      "fession": 1252,
      "iffe": 1253,
      "Ġstandard": 1254,
      "Ġimport": 1255,
      "Ġ100": 1256,
      "Ġwal": 1257,
      "Ġhigh": 1258,
      "icient": 1259,
      "Ġla": 1260,
      "Ġsun": 1261,
      "ample": 1262,
      "Ġinv": 1263,
      "23": 1264,
      "Ġchang": 1265,
      "com": 1266,
      "Ġloop": 1267,
      "Ġtest": 1268,
      "ased": 1269,
      "Ġproduct": 1270,
      "ĠValueError": 1271,
      "Ġtri": 1272,
      "ateg": 1273,
      "Ġsmall": 1274,
      "raints": 1275,
      "Ġbeen": 1276,
      "Ġhelp": 1277,
      "ener": 1278,
      "Ġmeters": 1279,
      "ipp": 1280,
      "ĠPol": 1281,
      "Ġpositive": 1282,
      "Ġcre": 1283,
      "to": 1284,
      "Ġsomething": 1285,
      "Ġsent": 1286,
      "Ġuses": 1287,
      "sc": 1288,
      "ob": 1289,
      "ee": 1290,
      "ars": 1291,
      "Ġword": 1292,
      ".*": 1293,
      "fessional": 1294,
      "Â°": 1295,
      "ems": 1296,
      "Ġmention": 1297,
      "arden": 1298,
      "Ġ&": 1299,
      "ash": 1300,
      "que": 1301,
      "ove": 1302,
      "ader": 1303,
      "Ġbr": 1304,
      "Ġequal": 1305,
      ",\"": 1306,
      "Ġinclude": 1307,
      "Ġbott": 1308,
      "Ġoptim": 1309,
      "Ġmuch": 1310,
      "ery": 1311,
      "Ġtom": 1312,
      "ted": 1313,
      "Ġeven": 1314,
      "()": 1315,
      "Ġsales": 1316,
      "ĠThat": 1317,
      "ank": 1318,
      "Formulate": 1319,
      "eting": 1320,
      "Ġcomplete": 1321,
      "ĠQu": 1322,
      "Ġsupp": 1323,
      "ĠThere": 1324,
      "here": 1325,
      "Ġtone": 1326,
      "Ġother": 1327,
      "Ġperfect": 1328,
      "eople": 1329,
      "ever": 1330,
      "atic": 1331,
      "cy": 1332,
      "Ġyesterday": 1333,
      "ious": 1334,
      "ween": 1335,
      "Ġdesc": 1336,
      "Ġreader": 1337,
      "ĠAI": 1338,
      "###": 1339,
      "Ġslow": 1340,
      "me": 1341,
      "Ġdoesn": 1342,
      "elt": 1343,
      "self": 1344,
      "Ġworks": 1345,
      "Ġtemperature": 1346,
      "let": 1347,
      "ains": 1348,
      "Ġdirect": 1349,
      "ier": 1350,
      "Ġfin": 1351,
      "Ġbetween": 1352,
      "not": 1353,
      "Ġsimple": 1354,
      "Ġdiffe": 1355,
      "Ġmem": 1356,
      "Ġway": 1357,
      "ĠWait": 1358,
      "ouse": 1359,
      "ced": 1360,
      "ĠĠĠĠĠ": 1361,
      "Ġacross": 1362,
      "Ġtake": 1363,
      "Ġconver": 1364,
      "Ġrevenue": 1365,
      "Ġstr": 1366,
      "Ġgl": 1367,
      "Ġsign": 1368,
      "Ġwrit": 1369,
      "ten": 1370,
      "ails": 1371,
      "ĠPolish": 1372,
      "Ġwind": 1373,
      "Ġheav": 1374,
      "$)": 1375,
      "ibr": 1376,
      "Ġerror": 1377,
      "ber": 1378,
      "ield": 1379,
      "Review": 1380,
      "Ġdiction": 1381,
      "file": 1382,
      "ins": 1383,
      "Ġrows": 1384,
      "Ġspeed": 1385,
      "Ġmaybe": 1386,
      "bo": 1387,
      "Ġsee": 1388,
      "ĠShe": 1389,
      "oss": 1390,
      "Ġnon": 1391,
      "Ġsil": 1392,
      "ula": 1393,
      "uring": 1394,
      "11": 1395,
      "Ġproject": 1396,
      "You": 1397,
      "Ġdefault": 1398,
      "Ġpeople": 1399,
      "Ġexpon": 1400,
      "Ġfollow": 1401,
      "`,": 1402,
      "dentify": 1403,
      "ired": 1404,
      "Ġactually": 1405,
      "Ġarr": 1406,
      "med": 1407,
      "ĠKe": 1408,
      "Ġcase": 1409,
      "riendly": 1410,
      "25": 1411,
      "To": 1412,
      "Ġinteger": 1413,
      "ĠCom": 1414,
      "ternative": 1415,
      "Ġstory": 1416,
      "utput": 1417,
      "Ġrange": 1418,
      "Ġgarden": 1419,
      "air": 1420,
      "Ġprev": 1421,
      "Ġloc": 1422,
      "Ġgra": 1423,
      "Ġsur": 1424,
      "ctions": 1425,
      "}}{": 1426,
      "Ġweek": 1427,
      "ided": 1428,
      "So": 1429,
      "Ġkey": 1430,
      "Ġdepth": 1431,
      "ases": 1432,
      "dition": 1433,
      "Ġelse": 1434,
      "Ġ|": 1435,
      "ird": 1436,
      "ĠCh": 1437,
      "Ġstore": 1438,
      "Ġexp": 1439,
      "Ġdictionary": 1440,
      "ade": 1441,
      "Ġclean": 1442,
      "Ġdisplac": 1443,
      "ty": 1444,
      "Ġprov": 1445,
      "lru": 1446,
      "Ġfloat": 1447,
      "Ġtomorrow": 1448,
      "Ġdate": 1449,
      "ner": 1450,
      "01": 1451,
      "ement": 1452,
      "Ġperform": 1453,
      "Ġsl": 1454,
      "step": 1455,
      "wh": 1456,
      "co": 1457,
      "Ġresponse": 1458,
      "oy": 1459,
      "ara": 1460,
      "Ġdou": 1461,
      "Ġthough": 1462,
      "ready": 1463,
      "Ġteam": 1464,
      "Ġconstraints": 1465,
      "ately": 1466,
      "200": 1467,
      "Ġrel": 1468,
      "'m": 1469,
      "ĠMaya": 1470,
      "ĠÃ": 1471,
      "Ġlead": 1472,
      "Ġsing": 1473,
      "ared": 1474,
      "Ġplan": 1475,
      "ia": 1476,
      "els": 1477,
      "ĠTime": 1478,
      "Ġce": 1479,
      "Ġdri": 1480,
      "Ġdon": 1481,
      "Ġamount": 1482,
      "riday": 1483,
      "adow": 1484,
      "ower": 1485,
      "Ġtech": 1486,
      "rib": 1487,
      "Ġinput": 1488,
      "ecause": 1489,
      "Ġown": 1490,
      "Ġlarge": 1491,
      "path": 1492,
      "ĠProvide": 1493,
      "Ġtimes": 1494,
      "ĠFe": 1495,
      "ining": 1496,
      "Ġfix": 1497,
      "ons": 1498,
      "ĠCheck": 1499,
      "ples": 1500,
      "ches": 1501,
      "Ġgold": 1502,
      "amp": 1503,
      "ĠOr": 1504,
      "tle": 1505,
      "Ġhapp": 1506,
      "Ġtry": 1507,
      "Ġdeep": 1508,
      "ask": 1509,
      "plement": 1510,
      "Ġcal": 1511,
      "ĠWhen": 1512,
      "Ġinside": 1513,
      "Ġsteps": 1514,
      "Ġphys": 1515,
      "tem": 1516,
      "down": 1517,
      "Ġchar": 1518,
      "Ġ11": 1519,
      "ets": 1520,
      "ision": 1521,
      "Ġair": 1522,
      "Ġda": 1523,
      "Ġhandle": 1524,
      "Ġsyst": 1525,
      "agraph": 1526,
      "ĠStep": 1527,
      "ustom": 1528,
      "Ġsquare": 1529,
      "Wh": 1530,
      "ways": 1531,
      "40": 1532,
      "ĠThey": 1533,
      "Ġorder": 1534,
      "Ġmath": 1535,
      "ior": 1536,
      "Ġchange": 1537,
      "Ġavoid": 1538,
      "\")": 1539,
      "str": 1540,
      "wise": 1541,
      "Ġblock": 1542,
      "ĠExplain": 1543,
      "Ġmark": 1544,
      "Ġthese": 1545,
      "Ġgear": 1546,
      "Ġalready": 1547,
      "Ġonce": 1548,
      "Ġvery": 1549,
      "60": 1550,
      "ero": 1551,
      "'d": 1552,
      "ype": 1553,
      "Ġcorrected": 1554,
      "Ġsort": 1555,
      "Ġfil": 1556,
      "Ġche": 1557,
      "Ġredu": 1558,
      "efine": 1559,
      "num": 1560,
      "Ġpass": 1561,
      "ĠPlease": 1562,
      "Ġraise": 1563,
      "Ġemail": 1564,
      "ency": 1565,
      "osed": 1566,
      "hes": 1567,
      "Ġmean": 1568,
      "Ġsw": 1569,
      "Ġmain": 1570,
      "Ġpoint": 1571,
      "Ġname": 1572,
      "Ġsides": 1573,
      "Ġgood": 1574,
      "irror": 1575,
      "lling": 1576,
      "Ġfibonacci": 1577,
      "ructure": 1578,
      "Ġgu": 1579,
      "Ġ60": 1580,
      "Ġfact": 1581,
      "Ġprofessional": 1582,
      "Ġacc": 1583,
      "ĠCalculate": 1584,
      "ĠFriday": 1585,
      "Ġz": 1586,
      "Ġsimpl": 1587,
      "als": 1588,
      "Ġtakes": 1589,
      "Ġimprove": 1590,
      "Ġreflection": 1591,
      "Ġsingle": 1592,
      "Ġdidn": 1593,
      "ools": 1594,
      "no": 1595,
      "irth": 1596,
      "'re": 1597,
      "Ġaway": 1598,
      "ending": 1599,
      "alf": 1600,
      "Ġpresent": 1601,
      "],": 1602,
      "import": 1603,
      "ork": 1604,
      "Ġwarm": 1605,
      "ĠAdd": 1606,
      "sed": 1607,
      "Ġeng": 1608,
      "ote": 1609,
      "Ġ\\(": 1610,
      "data": 1611,
      "Ġresults": 1612,
      "Ġanal": 1613,
      "chan": 1614,
      "Ġconcise": 1615,
      "Ġexponential": 1616,
      "Ġclass": 1617,
      "ĠTherefore": 1618,
      "ness": 1619,
      "ĠSe": 1620,
      "ivid": 1621,
      "rence": 1622,
      "Ġdistance": 1623,
      "Ġrest": 1624,
      "ounter": 1625,
      "Ġmass": 1626,
      "Ġconf": 1627,
      "Ġâ": 1628,
      "ified": 1629,
      "Ġbottom": 1630,
      "Ġca": 1631,
      "45": 1632,
      "Ġiss": 1633,
      "Al": 1634,
      "ĠGear": 1635,
      "Ġformula": 1636,
      "ering": 1637,
      "Ġformat": 1638,
      "Ġage": 1639,
      "uesday": 1640,
      "Ġ_": 1641,
      "Ġcat": 1642,
      "Ġensure": 1643,
      "pm": 1644,
      "Ġsince": 1645,
      ")$": 1646,
      "icit": 1647,
      "':": 1648,
      "This": 1649,
      "nowled": 1650,
      "='": 1651,
      "irc": 1652,
      "ĊĠĠĠĠĠĠĠĠĠĠĠĠĠĠĠ": 1653,
      "Ex": 1654,
      "lect": 1655,
      "YY": 1656,
      "Ġinclud": 1657,
      "ale": 1658,
      "ctools": 1659,
      "Ġred": 1660,
      "ĠHowever": 1661,
      "Ġ25": 1662,
      "Ġcosts": 1663,
      "Ġlast": 1664,
      "Ġshadow": 1665,
      "Ġassum": 1666,
      "Ġhere": 1667,
      "ĠOutput": 1668,
      "Ġimplement": 1669,
      "75": 1670,
      "ãĤ": 1671,
      "ched": 1672,
      "Ġentire": 1673,
      "Ġind": 1674,
      "Ġhold": 1675,
      "rodu": 1676,
      "roy": 1677,
      "Ġcontin": 1678,
      "face": 1679,
      "Ġasks": 1680,
      "Ġperformance": 1681,
      "arning": 1682,
      "Ġwatch": 1683,
      "ined": 1684,
      "Ġounces": 1685,
      "ts": 1686,
      "Ġbuild": 1687,
      "Ġpat": 1688,
      "ables": 1689,
      "Your": 1690,
      "ards": 1691,
      "cknowled": 1692,
      "aving": 1693,
      "aw": 1694,
      "cient": 1695,
      "Ġaut": 1696,
      "cent": 1697,
      "Ġgive": 1698,
      "Ġmirror": 1699,
      "time": 1700,
      "oup": 1701,
      "aring": 1702,
      "sh": 1703,
      "other": 1704,
      "cial": 1705,
      "ffee": 1706,
      "Ġfaster": 1707,
      "ody": 1708,
      "Ġcons": 1709,
      "24": 1710,
      "Ġgrow": 1711,
      "Ġwants": 1712,
      "Ġboat": 1713,
      "Cl": 1714,
      "ger": 1715,
      "Ġaround": 1716,
      "cus": 1717,
      "Ġrain": 1718,
      "Ġchanges": 1719,
      "Ġinitial": 1720,
      "Write": 1721,
      "Ġser": 1722,
      "Ġobject": 1723,
      "Ġbirth": 1724,
      "Ġ40": 1725,
      "Ġmax": 1726,
      "Ġrock": 1727,
      "plot": 1728,
      "ages": 1729,
      "14": 1730,
      "uture": 1731,
      "Ġnever": 1732,
      "Ġbase": 1733,
      "aturday": 1734,
      "Ġcare": 1735,
      "Ġfull": 1736,
      "Ġlength": 1737,
      "lockwise": 1738,
      "Ġdiv": 1739,
      "Ġcor": 1740,
      "arr": 1741,
      "Identify": 1742,
      "con": 1743,
      "Ġtop": 1744,
      "Ġprint": 1745,
      "ug": 1746,
      "Ġexper": 1747,
      "Ġunderstand": 1748,
      "Ġtre": 1749,
      "Ġexpect": 1750,
      "idden": 1751,
      "Ġdrive": 1752,
      "Ġcurrently": 1753,
      "rag": 1754,
      "ĠTo": 1755,
      "...\"": 1756,
      "Ġkg": 1757,
      "*:": 1758,
      "cing": 1759,
      "Ġperfectly": 1760,
      "ives": 1761,
      "Ġ150": 1762,
      "Ġneeded": 1763,
      "Ġsecond": 1764,
      "Ġdark": 1765,
      "Sub": 1766,
      "Ġprob": 1767,
      "ĠTuesday": 1768,
      "rox": 1769,
      "iddle": 1770,
      "Ġinstead": 1771,
      "tic": 1772,
      "vent": 1773,
      "Ġparagraph": 1774,
      "Ġalways": 1775,
      "==": 1776,
      "Ġpreser": 1777,
      "Ġsal": 1778,
      "80": 1779,
      "Ġtext": 1780,
      "Ġpul": 1781,
      "Ġprog": 1782,
      "Ġprovided": 1783,
      "Ġused": 1784,
      "Ġposs": 1785,
      "arch": 1786,
      "Ġed": 1787,
      "ĠWrite": 1788,
      "Ġsystem": 1789,
      "Ġskip": 1790,
      "iron": 1791,
      "formation": 1792,
      "ised": 1793,
      "ĠUn": 1794,
      "Ġdifferent": 1795,
      "ason": 1796,
      "Ġwait": 1797,
      "lex": 1798,
      "Ġnum": 1799,
      "ĠFeb": 1800,
      "ration": 1801,
      "Ġask": 1802,
      "ermine": 1803,
      "Wait": 1804,
      "Ġscene": 1805,
      "Ġgener": 1806,
      "ĠSun": 1807,
      "Ġarg": 1808,
      "agon": 1809,
      "ĠÃĹ": 1810,
      "Ġlibr": 1811,
      "ĠAlso": 1812,
      "ratic": 1813,
      "Ġrequest": 1814,
      "Ġterm": 1815,
      "Ġrewrite": 1816,
      "Ġlab": 1817,
      "Ġcondition": 1818,
      "$,": 1819,
      "ises": 1820,
      "Ġtoget": 1821,
      "Ġtogether": 1822,
      "Ġincre": 1823,
      "plt": 1824,
      "pped": 1825,
      "Ġbehind": 1826,
      "Ġbug": 1827,
      "Ġear": 1828,
      "ĠâĢ": 1829,
      "Ġ200": 1830,
      "ĠWhat": 1831,
      "Ġnth": 1832,
      "Ġexplicit": 1833,
      "Ġlif": 1834,
      "price": 1835,
      "ĠInclude": 1836,
      "(\"": 1837,
      "Ġvari": 1838,
      "Ġopp": 1839,
      "Ġmechan": 1840,
      "rams": 1841,
      "*.": 1842,
      "Ġid": 1843,
      "Ġmemory": 1844,
      "acing": 1845,
      "ument": 1846,
      "Ġcoffee": 1847,
      "Ġfound": 1848,
      "Ġprocess": 1849,
      "ho": 1850,
      "hod": 1851,
      "Ġflow": 1852,
      "Ġlevel": 1853,
      "Ġquick": 1854,
      "und": 1855,
      "Ġasking": 1856,
      "Ġsequ": 1857,
      "Ġsaid": 1858,
      "dot": 1859,
      "Ġbus": 1860,
      "adratic": 1861,
      "Ġtechn": 1862,
      "Ġdrop": 1863,
      "eneath": 1864,
      "Ġdue": 1865,
      "Ġdirectly": 1866,
      "Pro": 1867,
      "oice": 1868,
      "))": 1869,
      "Ġexample": 1870,
      "Ġtyp": 1871,
      "Ġtoo": 1872,
      "cdot": 1873,
      "Ġstri": 1874,
      "ert": 1875,
      "Ġefficient": 1876,
      "Ġthink": 1877,
      "Ġbook": 1878,
      "Ġcharact": 1879,
      "Ġsafe": 1880,
      "ook": 1881,
      "ply": 1882,
      "oday": 1883,
      "ĠQuestion": 1884,
      "ĠSub": 1885,
      "ĠAt": 1886,
      "Ġbreath": 1887,
      "ric": 1888,
      "approx": 1889,
      "revenue": 1890,
      "aves": 1891,
      "Ġtable": 1892,
      "ĠAs": 1893,
      "ology": 1894,
      "Ġnam": 1895,
      "ggest": 1896,
      ".**": 1897,
      "Ġmult": 1898,
      "):*": 1899,
      "Since": 1900,
      "Ġmph": 1901,
      "iver": 1902,
      "Ġquant": 1903,
      "Ġago": 1904,
      "Ġvalid": 1905,
      "ategory": 1906,
      "ĠSaturday": 1907,
      "ĠThen": 1908,
      "Ġdirection": 1909,
      "urs": 1910,
      "Ġglow": 1911,
      "Ġbased": 1912,
      "Ġlove": 1913,
      "Ġcent": 1914,
      "ĠKeep": 1915,
      "1000": 1916,
      "istance": 1917,
      "Ġtrue": 1918,
      "arget": 1919,
      "Ġnote": 1920,
      "iet": 1921,
      "yes": 1922,
      "imal": 1923,
      "nam": 1924,
      "Ġroom": 1925,
      "right": 1926,
      "io": 1927,
      "Ġwall": 1928,
      "Ġtrip": 1929,
      "gre": 1930,
      "Ġ+=": 1931,
      "mat": 1932,
      "omorrow": 1933,
      "aps": 1934,
      "ities": 1935,
      "Ġdesign": 1936,
      "ither": 1937,
      "ently": 1938,
      "Ġhalf": 1939,
      "Ġbirthday": 1940,
      "ense": 1941,
      "Ġ14": 1942,
      "plies": 1943,
      "month": 1944,
      "ones": 1945,
      "Ġhead": 1946,
      "Ġstud": 1947,
      "Ġ~": 1948,
      "Ġnight": 1949,
      "oth": 1950,
      "Ġ(\"": 1951,
      "ðŁ": 1952,
      "Ġyet": 1953,
      "total": 1954,
      "unch": 1955,
      "any": 1956,
      "Ġstack": 1957,
      "Ġheavy": 1958,
      "ois": 1959,
      "Ġcustom": 1960,
      "Ġsuit": 1961,
      "for": 1962,
      "ription": 1963,
      "osite": 1964,
      "Ġsumm": 1965,
      "aces": 1966,
      "Ġvis": 1967,
      "Ġhidden": 1968,
      "Ġkeys": 1969,
      "Ġmor": 1970,
      "Reader": 1971,
      "Ġmar": 1972,
      "Ġmost": 1973,
      "Ġsoft": 1974,
      "Ġbal": 1975,
      "Ġpack": 1976,
      "ique": 1977,
      "ĠDo": 1978,
      "Ġspent": 1979,
      "ĠSol": 1980,
      "Ġ1000": 1981,
      "Ġfine": 1982,
      "ĠMon": 1983,
      "Ġsay": 1984,
      "Ġless": 1985,
      "eff": 1986,
      "Ġcaus": 1987,
      "Ġwindow": 1988,
      "Ġ29": 1989,
      "Ġmess": 1990,
      "Ġglass": 1991,
      "oal": 1992,
      "Ġsky": 1993,
      "Ġbro": 1994,
      "150": 1995,
      "set": 1996,
      "Ġwalk": 1997,
      "max": 1998,
      "antly": 1999,
      "br": 2000,
      "ictReader": 2001,
      "Calculate": 2002,
      "Ġounce": 2003,
      "Ġeas": 2004,
      "Ġprot": 2005,
      "upois": 2006,
      "It": 2007,
      "irdupois": 2008,
      "Ġmade": 2009,
      "ĠPl": 2010,
      "Ġtrick": 2011,
      "Ġ28": 2012,
      "Ġbeneath": 2013,
      "stit": 2014,
      "ĠInitial": 2015,
      "lie": 2016,
      "like": 2017,
      "ĠPer": 2018,
      "Ġsit": 2019,
      "Ġquadratic": 2020,
      "Ġcalled": 2021,
      ")**": 2022,
      "ything": 2023,
      "back": 2024,
      "Ġstre": 2025,
      "cket": 2026,
      "Ġprodu": 2027,
      "She": 2028,
      "Un": 2029,
      "500": 2030,
      "Ġdead": 2031,
      "ences": 2032,
      "Ġroots": 2033,
      "Ġpast": 2034,
      "Ġstone": 2035,
      "ĠUse": 2036,
      "ĠShow": 2037,
      "}$.": 2038,
      "Ġgrams": 2039,
      "ĠCount": 2040,
      "Ġdisco": 2041,
      "Com": 2042,
      "medi": 2043,
      "ern": 2044,
      "otential": 2045,
      "Ġbeing": 2046,
      "ursday": 2047
    },
    "merges": [
      [
        "Ġ",
        "Ġ"
      ],
      [
        "Ġ",
        "t"
      ],
      [
        "h",
        "e"
      ],
      [
        "i",
        "n"
      ],
      [
        "Ġ",
        "a"
      ],
      [
        "r",
        "e"
      ],
      [
        "Ġt",
        "he"
      ],
      [
        "o",
        "n"
      ],
      [
        "Ġ",
        "s"
      ],
      [
        "e",
        "r"
      ],
      [
        "a",
        "t"
      ],
      [
        "Ġ",
        "c"
      ],
      [
        "o",
        "r"
      ],
      [
        "Ġ",
        "*"
      ],
      [
        "i",
        "t"
      ],
      [
        "e",
        "s"
      ],
      [
        "Ġ",
        "w"
      ],
      [
        "a",
        "l"
      ],
      [
        "e",
        "n"
      ],
      [
        "Ġ",
        "f"
      ],
      [
        "in",
        "g"
      ],
      [
        "o",
        "u"
      ],
      [
        "i",
        "s"
      ],
      [
        "Ċ",
        "ĠĠ"
      ],
      [
        "Ġ",
        "b"
      ],
      [
        "Ġ",
        "m"
      ],
      [
        "Ġ",
        "p"
      ],
      [
        "a",
        "n"
      ],
      [
        "Ġ",
        "d"
      ],
      [
        "i",
        "on"
      ],
      [
        "l",
        "e"
      ],
      [
        "a",
        "r"
      ],
      [
        "ĊĠĠ",
        "Ġ"
      ],
      [
        "e",
        "d"
      ],
      [
        "Ġt",
        "o"
      ],
      [
        "Ġa",
        "n"
      ],
      [
        "r",
        "o"
      ],
      [
        "Ġ",
        "o"
      ],
      [
        "c",
        "t"
      ],
      [
        "Ġ",
        "re"
      ],
      [
        "Ġ",
        "n"
      ],
      [
        "Ġ",
        "in"
      ],
      [
        "s",
        "t"
      ],
      [
        "i",
        "c"
      ],
      [
        "Ġ",
        "e"
      ],
      [
        "Ġ",
        "("
      ],
      [
        "Ġ",
        "h"
      ],
      [
        "Ġan",
        "d"
      ],
      [
        "*",
        "*"
      ],
      [
        "l",
        "y"
      ],
      [
        "Ġ",
        "l"
      ],
      [
        "Ġo",
        "f"
      ],
      [
        "Ġ",
        "="
      ],
      [
        "Ġ",
        "is"
      ],
      [
        "e",
        "t"
      ],
      [
        "v",
        "e"
      ],
      [
        "en",
        "t"
      ],
      [
        "a",
        "c"
      ],
      [
        "i",
        "m"
      ],
      [
        "Ġ",
        "T"
      ],
      [
        "Ġt",
        "h"
      ],
      [
        "a",
        "s"
      ],
      [
        "u",
        "t"
      ],
      [
        "Ġ",
        "1"
      ],
      [
        "t",
        "h"
      ],
      [
        "Ġ*",
        "*"
      ],
      [
        "Ġ",
        "y"
      ],
      [
        "u",
        "r"
      ],
      [
        "Ġ",
        "I"
      ],
      [
        "o",
        "m"
      ],
      [
        "a",
        "y"
      ],
      [
        "ĠĠ",
        "ĠĠ"
      ],
      [
        "o",
        "w"
      ],
      [
        "i",
        "d"
      ],
      [
        "Ġ",
        "g"
      ],
      [
        "u",
        "s"
      ],
      [
        "l",
        "l"
      ],
      [
        "Ġs",
        "t"
      ],
      [
        "i",
        "g"
      ],
      [
        "Ġ",
        "it"
      ],
      [
        "Ġf",
        "or"
      ],
      [
        "o",
        "t"
      ],
      [
        "u",
        "n"
      ],
      [
        ":",
        "**"
      ],
      [
        "Ġ",
        "S"
      ],
      [
        "r",
        "a"
      ],
      [
        "o",
        "l"
      ],
      [
        "Ġy",
        "ou"
      ],
      [
        "v",
        "er"
      ],
      [
        "at",
        "ion"
      ],
      [
        "u",
        "m"
      ],
      [
        "c",
        "e"
      ],
      [
        "i",
        "f"
      ],
      [
        "Ġ",
        "2"
      ],
      [
        "u",
        "l"
      ],
      [
        "at",
        "e"
      ],
      [
        "a",
        "d"
      ],
      [
        "Ġb",
        "e"
      ],
      [
        "Ġ",
        "A"
      ],
      [
        "0",
        "0"
      ],
      [
        "q",
        "u"
      ],
      [
        "ĠT",
        "he"
      ],
      [
        "Ġ",
        "$"
      ],
      [
        "Ġ",
        "\""
      ],
      [
        "Ġ",
        "on"
      ],
      [
        "it",
        "h"
      ],
      [
        "i",
        "ve"
      ],
      [
        "Ġe",
        "x"
      ],
      [
        "ĊĠĠ",
        "ĠĠĠĠ"
      ],
      [
        "Ġ",
        "C"
      ],
      [
        "e",
        "m"
      ],
      [
        "ig",
        "h"
      ],
      [
        "'",
        "s"
      ],
      [
        "i",
        "l"
      ],
      [
        "i",
        "b"
      ],
      [
        "p",
        "l"
      ],
      [
        "t",
        "er"
      ],
      [
        "ct",
        "ion"
      ],
      [
        "a",
        "m"
      ],
      [
        "Ġw",
        "ith"
      ],
      [
        "Ġp",
        "ro"
      ],
      [
        "e",
        "p"
      ],
      [
        "Ġ",
        "P"
      ],
      [
        "Ġ",
        "-"
      ],
      [
        "Ġth",
        "at"
      ],
      [
        "i",
        "r"
      ],
      [
        "Ġ",
        "us"
      ],
      [
        "k",
        "e"
      ],
      [
        "r",
        "i"
      ],
      [
        "ou",
        "n"
      ],
      [
        "igh",
        "t"
      ],
      [
        "Ġ",
        "`"
      ],
      [
        "o",
        "d"
      ],
      [
        "Ġ",
        "or"
      ],
      [
        "g",
        "e"
      ],
      [
        "ĊĠĠĠĠĠĠ",
        "Ġ"
      ],
      [
        "s",
        "e"
      ],
      [
        ")",
        "."
      ],
      [
        "es",
        "t"
      ],
      [
        "Ġn",
        "e"
      ],
      [
        "c",
        "h"
      ],
      [
        "Ġc",
        "on"
      ],
      [
        "Ġ",
        "he"
      ],
      [
        "Ġ",
        "+"
      ],
      [
        "p",
        "p"
      ],
      [
        "er",
        "s"
      ],
      [
        "a",
        "in"
      ],
      [
        "Ġ",
        "v"
      ],
      [
        "p",
        "t"
      ],
      [
        "Ġw",
        "e"
      ],
      [
        "ou",
        "t"
      ],
      [
        "l",
        "d"
      ],
      [
        "Ġ",
        "F"
      ],
      [
        "Ġ",
        "3"
      ],
      [
        "an",
        "d"
      ],
      [
        "Ġ",
        "r"
      ],
      [
        "Ġw",
        "h"
      ],
      [
        "Ġ",
        "\\"
      ],
      [
        "Ġc",
        "om"
      ],
      [
        "Ġs",
        "h"
      ],
      [
        "in",
        "k"
      ],
      [
        "Ġa",
        "s"
      ],
      [
        "â",
        "Ģ"
      ],
      [
        "is",
        "t"
      ],
      [
        "o",
        "re"
      ],
      [
        "ur",
        "n"
      ],
      [
        "im",
        "e"
      ],
      [
        "Ġ",
        "le"
      ],
      [
        "Ġ",
        "W"
      ],
      [
        "u",
        "st"
      ],
      [
        "e",
        "f"
      ],
      [
        "a",
        "b"
      ],
      [
        "c",
        "k"
      ],
      [
        "p",
        "e"
      ],
      [
        "u",
        "e"
      ],
      [
        "u",
        "re"
      ],
      [
        "in",
        "e"
      ],
      [
        "`",
        "`"
      ],
      [
        "al",
        "l"
      ],
      [
        "s",
        "ion"
      ],
      [
        "Ġ",
        "M"
      ],
      [
        "an",
        "t"
      ],
      [
        "Ġa",
        "t"
      ],
      [
        "i",
        "z"
      ],
      [
        "ou",
        "r"
      ],
      [
        "id",
        "e"
      ],
      [
        "it",
        "y"
      ],
      [
        "Ġ",
        "B"
      ],
      [
        "p",
        "le"
      ],
      [
        "Ġ",
        "0"
      ],
      [
        "th",
        "ink"
      ],
      [
        "Ġw",
        "or"
      ],
      [
        "Ġ",
        "E"
      ],
      [
        "Ġ",
        "L"
      ],
      [
        "i",
        "ll"
      ],
      [
        "t",
        "e"
      ],
      [
        "Ġ",
        "if"
      ],
      [
        "o",
        "s"
      ],
      [
        "Ġyou",
        "r"
      ],
      [
        "e",
        "l"
      ],
      [
        "or",
        "t"
      ],
      [
        "Ġre",
        "t"
      ],
      [
        "Ġ",
        "R"
      ],
      [
        "Ġa",
        "re"
      ],
      [
        "Ġ",
        "D"
      ],
      [
        "ou",
        "ld"
      ],
      [
        "d",
        "s"
      ],
      [
        "Ġ",
        "ro"
      ],
      [
        "Ġret",
        "urn"
      ],
      [
        "m",
        "ent"
      ],
      [
        "u",
        "p"
      ],
      [
        "ro",
        "m"
      ],
      [
        "Ġ",
        "O"
      ],
      [
        "d",
        "ay"
      ],
      [
        "Ġl",
        "o"
      ],
      [
        "on",
        "e"
      ],
      [
        "p",
        "ut"
      ],
      [
        "a",
        "ve"
      ],
      [
        "f",
        "t"
      ],
      [
        "Ġm",
        "e"
      ],
      [
        "Ġb",
        "ut"
      ],
      [
        "Ġf",
        "un"
      ],
      [
        "Ġ",
        "5"
      ],
      [
        "e",
        "ar"
      ],
      [
        "en",
        "d"
      ],
      [
        "Ġ",
        "N"
      ],
      [
        "l",
        "o"
      ],
      [
        "al",
        "ly"
      ],
      [
        "i",
        "v"
      ],
      [
        "es",
        "s"
      ],
      [
        "c",
        "i"
      ],
      [
        "T",
        "he"
      ],
      [
        "Ġ",
        "Y"
      ],
      [
        "ar",
        "t"
      ],
      [
        "ac",
        "k"
      ],
      [
        "e",
        "c"
      ],
      [
        "a",
        "k"
      ],
      [
        "Ġre",
        "c"
      ],
      [
        "Ġt",
        "ime"
      ],
      [
        "Ġc",
        "h"
      ],
      [
        "it",
        "e"
      ],
      [
        ":",
        "*"
      ],
      [
        "Ġ",
        "4"
      ],
      [
        "a",
        "ct"
      ],
      [
        "in",
        "al"
      ],
      [
        "ar",
        "d"
      ],
      [
        "re",
        "s"
      ],
      [
        "Ġf",
        "rom"
      ],
      [
        "Ġ",
        "H"
      ],
      [
        "a",
        "g"
      ],
      [
        "Ġ",
        "j"
      ],
      [
        "in",
        "t"
      ],
      [
        "Ġa",
        "l"
      ],
      [
        "he",
        "r"
      ],
      [
        "Ġfun",
        "ction"
      ],
      [
        "e",
        "ct"
      ],
      [
        "ac",
        "h"
      ],
      [
        "am",
        "e"
      ],
      [
        "Ġb",
        "y"
      ],
      [
        "Ġc",
        "an"
      ],
      [
        "Ġn",
        "ot"
      ],
      [
        "a",
        "st"
      ],
      [
        "Ġc",
        "o"
      ],
      [
        "Ġ",
        "un"
      ],
      [
        "ic",
        "e"
      ],
      [
        "Ġd",
        "o"
      ],
      [
        "em",
        "o"
      ],
      [
        "or",
        "m"
      ],
      [
        "ul",
        "t"
      ],
      [
        "at",
        "ive"
      ],
      [
        "Ġs",
        "u"
      ],
      [
        "Ġh",
        "ave"
      ],
      [
        "x",
        "t"
      ],
      [
        "re",
        "d"
      ],
      [
        "Ġ",
        "im"
      ],
      [
        "um",
        "b"
      ],
      [
        "re",
        "n"
      ],
      [
        ".",
        "\""
      ],
      [
        "Ġth",
        "is"
      ],
      [
        "a",
        "ge"
      ],
      [
        "y",
        "th"
      ],
      [
        "Ġw",
        "as"
      ],
      [
        "as",
        "e"
      ],
      [
        "Ġf",
        "ib"
      ],
      [
        "Ġre",
        "s"
      ],
      [
        "d",
        "u"
      ],
      [
        "Ġin",
        "t"
      ],
      [
        "i",
        "le"
      ],
      [
        "Ġt",
        "r"
      ],
      [
        "u",
        "d"
      ],
      [
        "in",
        "d"
      ],
      [
        "Ġs",
        "c"
      ],
      [
        "Ġp",
        "l"
      ],
      [
        "Ġ",
        "k"
      ],
      [
        "Ġs",
        "o"
      ],
      [
        "i",
        "e"
      ],
      [
        "oun",
        "t"
      ],
      [
        "g",
        "h"
      ],
      [
        "Ġ",
        "qu"
      ],
      [
        "Ġne",
        "ed"
      ],
      [
        "at",
        "er"
      ],
      [
        "Ġw",
        "he"
      ],
      [
        "Ġ",
        "en"
      ],
      [
        "ay",
        "s"
      ],
      [
        "Ġ",
        "out"
      ],
      [
        "'",
        "t"
      ],
      [
        "Ġex",
        "pl"
      ],
      [
        "Ġm",
        "emo"
      ],
      [
        "od",
        "e"
      ],
      [
        "a",
        "v"
      ],
      [
        "Ġs",
        "p"
      ],
      [
        "d",
        "er"
      ],
      [
        "Ġn",
        "umb"
      ],
      [
        "i",
        "al"
      ],
      [
        "Ġ",
        "up"
      ],
      [
        "Ġ",
        "'"
      ],
      [
        "ĠT",
        "h"
      ],
      [
        "i",
        "ke"
      ],
      [
        "ic",
        "al"
      ],
      [
        "Ġb",
        "o"
      ],
      [
        "Ġrec",
        "ur"
      ],
      [
        "Ġp",
        "er"
      ],
      [
        "oun",
        "d"
      ],
      [
        ")",
        ":"
      ],
      [
        "yth",
        "on"
      ],
      [
        "ro",
        "w"
      ],
      [
        "c",
        "l"
      ],
      [
        "o",
        "p"
      ],
      [
        "Ġa",
        "b"
      ],
      [
        "as",
        "s"
      ],
      [
        "r",
        "or"
      ],
      [
        "is",
        "e"
      ],
      [
        "p",
        "er"
      ],
      [
        "Ġm",
        "y"
      ],
      [
        "ar",
        "y"
      ],
      [
        "v",
        "en"
      ],
      [
        "ou",
        "gh"
      ],
      [
        "ac",
        "e"
      ],
      [
        "ĠI",
        "n"
      ],
      [
        "<",
        "/"
      ],
      [
        "âĢ",
        "Ķ"
      ],
      [
        "o",
        "k"
      ],
      [
        "a",
        "ke"
      ],
      [
        "Ġa",
        "r"
      ],
      [
        "Ġ",
        "G"
      ],
      [
        "ab",
        "le"
      ],
      [
        "Ġs",
        "e"
      ],
      [
        "an",
        "ce"
      ],
      [
        "at",
        "h"
      ],
      [
        "Ġw",
        "ill"
      ],
      [
        "r",
        "u"
      ],
      [
        "ĠY",
        "es"
      ],
      [
        "i",
        "re"
      ],
      [
        "5",
        "0"
      ],
      [
        "Ġc",
        "ode"
      ],
      [
        "``",
        "`"
      ],
      [
        "Ġ",
        "Ċ"
      ],
      [
        "en",
        "ce"
      ],
      [
        "c",
        "ul"
      ],
      [
        "i",
        "es"
      ],
      [
        "om",
        "e"
      ],
      [
        "Ġ1",
        "0"
      ],
      [
        "Ġthe",
        "y"
      ],
      [
        "ĠS",
        "t"
      ],
      [
        "'",
        "ll"
      ],
      [
        "r",
        "ite"
      ],
      [
        "Ġc",
        "l"
      ],
      [
        "Ġhe",
        "r"
      ],
      [
        "a",
        "us"
      ],
      [
        ")",
        ","
      ],
      [
        "d",
        "d"
      ],
      [
        "Ġe",
        "m"
      ],
      [
        "f",
        "f"
      ],
      [
        "Ġa",
        "pp"
      ],
      [
        ".",
        "."
      ],
      [
        "Ġ",
        "ver"
      ],
      [
        "Ġt",
        "w"
      ],
      [
        "n",
        "al"
      ],
      [
        "or",
        "y"
      ],
      [
        "al",
        "cul"
      ],
      [
        "re",
        "e"
      ],
      [
        "he",
        "ck"
      ],
      [
        "le",
        "d"
      ],
      [
        "Ġd",
        "is"
      ],
      [
        "ol",
        "d"
      ],
      [
        "ac",
        "he"
      ],
      [
        "Ġh",
        "and"
      ],
      [
        "Ġl",
        "ike"
      ],
      [
        "Ġs",
        "pe"
      ],
      [
        "Ġj",
        "ust"
      ],
      [
        "00",
        "0"
      ],
      [
        "a",
        "re"
      ],
      [
        "ic",
        "h"
      ],
      [
        "ow",
        "n"
      ],
      [
        "an",
        "g"
      ],
      [
        "Ġt",
        "e"
      ],
      [
        "an",
        "s"
      ],
      [
        "Ġw",
        "ater"
      ],
      [
        "Ġv",
        "al"
      ],
      [
        "âĢ",
        "Ļ"
      ],
      [
        "Ġc",
        "le"
      ],
      [
        "ic",
        "k"
      ],
      [
        "Ġp",
        "r"
      ],
      [
        "Ġint",
        "o"
      ],
      [
        "w",
        "er"
      ],
      [
        "a",
        "p"
      ],
      [
        "Ġus",
        "er"
      ],
      [
        "t",
        "al"
      ],
      [
        "o",
        "g"
      ],
      [
        "Ġd",
        "e"
      ],
      [
        "l",
        "ow"
      ],
      [
        "Ġ",
        "ke"
      ],
      [
        "Ġ2",
        "0"
      ],
      [
        "Ġc",
        "all"
      ],
      [
        "Ġa",
        "c"
      ],
      [
        "Ġwor",
        "ds"
      ],
      [
        "Ġ",
        "["
      ],
      [
        "Ġa",
        "ll"
      ],
      [
        "f",
        "ore"
      ],
      [
        "i",
        "p"
      ],
      [
        "ra",
        "ft"
      ],
      [
        "r",
        "ac"
      ],
      [
        "at",
        "a"
      ],
      [
        "Ġus",
        "ing"
      ],
      [
        "v",
        "ide"
      ],
      [
        "ĠL",
        "et"
      ],
      [
        "ol",
        "um"
      ],
      [
        ")",
        "`"
      ],
      [
        "ĠR",
        "e"
      ],
      [
        "a",
        "il"
      ],
      [
        "Ġ",
        "6"
      ],
      [
        "ren",
        "t"
      ],
      [
        "ĠI",
        "f"
      ],
      [
        "-",
        "-"
      ],
      [
        "Ġm",
        "an"
      ],
      [
        "Ġim",
        "p"
      ],
      [
        "at",
        "ed"
      ],
      [
        "aus",
        "e"
      ],
      [
        "Ġf",
        "e"
      ],
      [
        "Ġto",
        "tal"
      ],
      [
        "iz",
        "ation"
      ],
      [
        "Ġ1",
        "2"
      ],
      [
        "Ġ",
        "ra"
      ],
      [
        "ac",
        "ci"
      ],
      [
        "on",
        "acci"
      ],
      [
        "ĊĠĠĠĠĠĠ",
        "ĠĠĠĠ"
      ],
      [
        "Ġus",
        "e"
      ],
      [
        "Ġo",
        "ver"
      ],
      [
        "Ġa",
        "g"
      ],
      [
        "Ġon",
        "e"
      ],
      [
        "Ġ",
        "/"
      ],
      [
        "z",
        "e"
      ],
      [
        "Ġ",
        "V"
      ],
      [
        "s",
        "wer"
      ],
      [
        "Ġcom",
        "ple"
      ],
      [
        "a",
        "pp"
      ],
      [
        "}",
        "{"
      ],
      [
        "ou",
        "s"
      ],
      [
        "im",
        "es"
      ],
      [
        "on",
        "g"
      ],
      [
        "Ġp",
        "o"
      ],
      [
        "f",
        "rac"
      ],
      [
        "k",
        "s"
      ],
      [
        "Ġy",
        "ear"
      ],
      [
        "Ġa",
        "m"
      ],
      [
        "cl",
        "ud"
      ],
      [
        "$",
        "."
      ],
      [
        "p",
        "on"
      ],
      [
        "Ġab",
        "out"
      ],
      [
        "ĠI",
        "t"
      ],
      [
        "Ġh",
        "as"
      ],
      [
        "in",
        "ce"
      ],
      [
        "Ġnumb",
        "er"
      ],
      [
        "if",
        "y"
      ],
      [
        "s",
        "v"
      ],
      [
        "ig",
        "n"
      ],
      [
        "s",
        "o"
      ],
      [
        "Ġn",
        "o"
      ],
      [
        "Ġe",
        "qu"
      ],
      [
        "u",
        "es"
      ],
      [
        "Ġro",
        "w"
      ],
      [
        "Ġg",
        "o"
      ],
      [
        "Ġm",
        "in"
      ],
      [
        "Ġth",
        "an"
      ],
      [
        "Ġrecur",
        "sion"
      ],
      [
        "j",
        "ect"
      ],
      [
        "or",
        "re"
      ],
      [
        "at",
        "es"
      ],
      [
        "p",
        "h"
      ],
      [
        "Ġcon",
        "t"
      ],
      [
        "ir",
        "st"
      ],
      [
        "t",
        "ing"
      ],
      [
        "al",
        "es"
      ],
      [
        "Ġ-",
        ">"
      ],
      [
        "Ġres",
        "ult"
      ],
      [
        "Ġit",
        "s"
      ],
      [
        "Ġtw",
        "o"
      ],
      [
        "Ġw",
        "ould"
      ],
      [
        "Ġh",
        "our"
      ],
      [
        "Ġc",
        "ar"
      ],
      [
        "Ġre",
        "ad"
      ],
      [
        "y",
        "ze"
      ],
      [
        "it",
        "ion"
      ],
      [
        "Ġit",
        "er"
      ],
      [
        "ver",
        "y"
      ],
      [
        "Ġ",
        "7"
      ],
      [
        "Ġex",
        "act"
      ],
      [
        "Ġh",
        "ad"
      ],
      [
        "f",
        "orm"
      ],
      [
        "Ġne",
        "w"
      ],
      [
        "Ġ",
        "U"
      ],
      [
        "Ġe",
        "ach"
      ],
      [
        "Ġs",
        "ol"
      ],
      [
        "b",
        "le"
      ],
      [
        "Ġst",
        "ep"
      ],
      [
        "est",
        "ion"
      ],
      [
        "H",
        "e"
      ],
      [
        "Ġh",
        "ow"
      ],
      [
        "Ġ",
        "9"
      ],
      [
        "Ġwh",
        "ich"
      ],
      [
        "orre",
        "ct"
      ],
      [
        "A",
        "nal"
      ],
      [
        "S",
        "t"
      ],
      [
        "Ġd",
        "ef"
      ],
      [
        "en",
        "s"
      ],
      [
        "at",
        "ure"
      ],
      [
        "r",
        "ing"
      ],
      [
        "u",
        "ally"
      ],
      [
        "ĠW",
        "e"
      ],
      [
        "Ġc",
        "ur"
      ],
      [
        "Anal",
        "yze"
      ],
      [
        "Ġcom",
        "put"
      ],
      [
        "Ġs",
        "im"
      ],
      [
        "n",
        "ow"
      ],
      [
        "r",
        "y"
      ],
      [
        "Ġs",
        "he"
      ],
      [
        "Ġm",
        "et"
      ],
      [
        "Ġb",
        "u"
      ],
      [
        "Ġb",
        "ack"
      ],
      [
        "ot",
        "al"
      ],
      [
        "g",
        "et"
      ],
      [
        "Ġan",
        "swer"
      ],
      [
        "ĠS",
        "o"
      ],
      [
        "R",
        "e"
      ],
      [
        "1",
        "0"
      ],
      [
        "Ġs",
        "ame"
      ],
      [
        "Ġ",
        "<"
      ],
      [
        "Ġ",
        "our"
      ],
      [
        "i",
        "ent"
      ],
      [
        "Ġbe",
        "c"
      ],
      [
        "it",
        "s"
      ],
      [
        "Ġcle",
        "ar"
      ],
      [
        "Ġsh",
        "ould"
      ],
      [
        "Ġm",
        "o"
      ],
      [
        "Ġp",
        "re"
      ],
      [
        "Ċ",
        "ĊĠĠĠ"
      ],
      [
        "ar",
        "k"
      ],
      [
        "f",
        "e"
      ],
      [
        "if",
        "ic"
      ],
      [
        "a",
        "it"
      ],
      [
        "Ġwhe",
        "re"
      ],
      [
        "Ġfor",
        "m"
      ],
      [
        "r",
        "ror"
      ],
      [
        "qu",
        "est"
      ],
      [
        "Ġle",
        "ft"
      ],
      [
        "f",
        "ib"
      ],
      [
        "te",
        "xt"
      ],
      [
        "c",
        "es"
      ],
      [
        "1",
        "2"
      ],
      [
        "an",
        "ge"
      ],
      [
        "u",
        "b"
      ],
      [
        "Ġd",
        "ay"
      ],
      [
        "}",
        "$"
      ],
      [
        "Ġbe",
        "fore"
      ],
      [
        "ation",
        "s"
      ],
      [
        "Ġl",
        "ist"
      ],
      [
        "E",
        "rror"
      ],
      [
        "ig",
        "inal"
      ],
      [
        "Ġle",
        "t"
      ],
      [
        "Ġon",
        "ly"
      ],
      [
        "Ġ",
        "8"
      ],
      [
        "n",
        "ing"
      ],
      [
        "l",
        "es"
      ],
      [
        "at",
        "ing"
      ],
      [
        "y",
        "s"
      ],
      [
        "c",
        "he"
      ],
      [
        "Ġb",
        "re"
      ],
      [
        "on",
        "th"
      ],
      [
        "Ġm",
        "ore"
      ],
      [
        "iz",
        "e"
      ],
      [
        "Ġpro",
        "vide"
      ],
      [
        "ri",
        "pt"
      ],
      [
        "f",
        "ter"
      ],
      [
        "Ġver",
        "sion"
      ],
      [
        "Ġp",
        "h"
      ],
      [
        "Ġr",
        "ight"
      ],
      [
        "Ġiter",
        "ative"
      ],
      [
        "an",
        "ation"
      ],
      [
        "is",
        "h"
      ],
      [
        "Ġthe",
        "ir"
      ],
      [
        "Ġw",
        "ant"
      ],
      [
        "Ġp",
        "os"
      ],
      [
        "ĠP",
        "ro"
      ],
      [
        "D",
        "raft"
      ],
      [
        "Ġs",
        "m"
      ],
      [
        "Ġf",
        "irst"
      ],
      [
        "Ġdo",
        "es"
      ],
      [
        "ut",
        "ion"
      ],
      [
        "ment",
        "s"
      ],
      [
        "i",
        "ct"
      ],
      [
        "r",
        "t"
      ],
      [
        "ĠP",
        "ython"
      ],
      [
        "#",
        "#"
      ],
      [
        "Ġthe",
        "m"
      ],
      [
        "a",
        "x"
      ],
      [
        "Ġthe",
        "n"
      ],
      [
        "s",
        "ing"
      ],
      [
        "W",
        "e"
      ],
      [
        "Ġp",
        "res"
      ],
      [
        "du",
        "ct"
      ],
      [
        "Ġc",
        "heck"
      ],
      [
        "Ġmemo",
        "ization"
      ],
      [
        "ie",
        "w"
      ],
      [
        "ĠB",
        "ut"
      ],
      [
        "w",
        "e"
      ],
      [
        "Ġre",
        "m"
      ],
      [
        "Ġan",
        "y"
      ],
      [
        "Ġwhe",
        "n"
      ],
      [
        "Ġd",
        "es"
      ],
      [
        "Ġbo",
        "th"
      ],
      [
        "L",
        "et"
      ],
      [
        "ã",
        "ģ"
      ],
      [
        "Ġf",
        "inal"
      ],
      [
        "int",
        "s"
      ],
      [
        "p",
        "ython"
      ],
      [
        "q",
        "rt"
      ],
      [
        "Ġf",
        "o"
      ],
      [
        "He",
        "re"
      ],
      [
        "ĊĠĠĠĠĠĠĠĠĠĠ",
        "Ġ"
      ],
      [
        "Ġyear",
        "s"
      ],
      [
        "Ġd",
        "ata"
      ],
      [
        "v",
        "ing"
      ],
      [
        "p",
        "r"
      ],
      [
        "re",
        "ad"
      ],
      [
        "lo",
        "ck"
      ],
      [
        "Ġin",
        "ter"
      ],
      [
        "ĠC",
        "on"
      ],
      [
        "r",
        "ough"
      ],
      [
        "or",
        "d"
      ],
      [
        "te",
        "g"
      ],
      [
        "r",
        "it"
      ],
      [
        "Ġapp",
        "ro"
      ],
      [
        "Ġor",
        "iginal"
      ],
      [
        "Ġa",
        "dd"
      ],
      [
        "Ġthe",
        "re"
      ],
      [
        "ra",
        "m"
      ],
      [
        "Ġc",
        "orrect"
      ],
      [
        "Ġs",
        "k"
      ],
      [
        "d",
        "ef"
      ],
      [
        "ver",
        "age"
      ],
      [
        "iz",
        "ed"
      ],
      [
        "ĠF",
        "ib"
      ],
      [
        "Ġwor",
        "k"
      ],
      [
        "clud",
        "e"
      ],
      [
        "Ġsu",
        "b"
      ],
      [
        "er",
        "g"
      ],
      [
        "Ġof",
        "f"
      ],
      [
        "Ġd",
        "ays"
      ],
      [
        "b",
        "e"
      ],
      [
        "Ġf",
        "l"
      ],
      [
        "Ġwh",
        "at"
      ],
      [
        "Ġs",
        "et"
      ],
      [
        "Ġm",
        "ust"
      ],
      [
        "Ġ",
        "K"
      ],
      [
        "Ġmin",
        "ut"
      ],
      [
        "n",
        "e"
      ],
      [
        "ĠFib",
        "onacci"
      ],
      [
        "Ġa",
        "ct"
      ],
      [
        "ĠE",
        "x"
      ],
      [
        "p",
        "en"
      ],
      [
        "'",
        "]"
      ],
      [
        "Ġag",
        "ain"
      ],
      [
        "ĠTh",
        "is"
      ],
      [
        "t",
        "he"
      ],
      [
        "ve",
        "l"
      ],
      [
        "alcul",
        "ate"
      ],
      [
        "Ġexpl",
        "ain"
      ],
      [
        "Ġh",
        "is"
      ],
      [
        "Ġg",
        "r"
      ],
      [
        "Ġhour",
        "s"
      ],
      [
        "Ġa",
        "fter"
      ],
      [
        "Ġd",
        "own"
      ],
      [
        "s",
        "s"
      ],
      [
        "at",
        "ch"
      ],
      [
        "Ġwh",
        "o"
      ],
      [
        "s",
        "qrt"
      ],
      [
        "Ġcom",
        "m"
      ],
      [
        "Ġc",
        "ould"
      ],
      [
        "[",
        "'"
      ],
      [
        "t",
        "her"
      ],
      [
        "l",
        "ine"
      ],
      [
        "2",
        "0"
      ],
      [
        "Ġn",
        "ow"
      ],
      [
        "Ġst",
        "art"
      ],
      [
        "Ġexact",
        "ly"
      ],
      [
        "Ġ",
        "J"
      ],
      [
        "c",
        "ess"
      ],
      [
        "Ġke",
        "ep"
      ],
      [
        "u",
        "al"
      ],
      [
        "Ġ=",
        "="
      ],
      [
        "Ġc",
        "ount"
      ],
      [
        "i",
        "x"
      ],
      [
        "Ġco",
        "st"
      ],
      [
        "Ġdis",
        "c"
      ],
      [
        "Ġman",
        "y"
      ],
      [
        "Ġ",
        "#"
      ],
      [
        "olum",
        "e"
      ],
      [
        "Ġs",
        "ec"
      ],
      [
        "Ġm",
        "is"
      ],
      [
        "ven",
        "ue"
      ],
      [
        "St",
        "ep"
      ],
      [
        "Ġe",
        "very"
      ],
      [
        "Ġd",
        "ec"
      ],
      [
        "Ġg",
        "et"
      ],
      [
        "ble",
        "m"
      ],
      [
        "Ġbec",
        "ause"
      ],
      [
        "pe",
        "ct"
      ],
      [
        "v",
        "al"
      ],
      [
        "Ġminut",
        "es"
      ],
      [
        "Ġsh",
        "ort"
      ],
      [
        "Ġg",
        "iv"
      ],
      [
        "Ġd",
        "ire"
      ],
      [
        "Ġcur",
        "rent"
      ],
      [
        "Ġd",
        "r"
      ],
      [
        "**",
        "."
      ],
      [
        "Ġf",
        "lo"
      ],
      [
        "Ġin",
        "st"
      ],
      [
        "Ġ(",
        "$"
      ],
      [
        "s",
        "ive"
      ],
      [
        "Ġcon",
        "st"
      ],
      [
        "f",
        "ul"
      ],
      [
        "Ġexpl",
        "anation"
      ],
      [
        "ent",
        "ion"
      ],
      [
        "g",
        "g"
      ],
      [
        "om",
        "et"
      ],
      [
        "Ġp",
        "ers"
      ],
      [
        "Ġin",
        "teg"
      ],
      [
        "Ġpro",
        "m"
      ],
      [
        "Ġd",
        "ep"
      ],
      [
        "Ġs",
        "a"
      ],
      [
        "d",
        "e"
      ],
      [
        "Ġth",
        "rough"
      ],
      [
        "'",
        ")"
      ],
      [
        "âĢ",
        "ĳ"
      ],
      [
        "ĠRe",
        "quest"
      ],
      [
        "Ġre",
        "f"
      ],
      [
        "he",
        "n"
      ],
      [
        "p",
        "ort"
      ],
      [
        "v",
        "iew"
      ],
      [
        "Ġm",
        "il"
      ],
      [
        "pt",
        "y"
      ],
      [
        "ter",
        "n"
      ],
      [
        "Ġ3",
        "0"
      ],
      [
        "Ġun",
        "der"
      ],
      [
        "Ġd",
        "ist"
      ],
      [
        "ak",
        "es"
      ],
      [
        "Ġal",
        "so"
      ],
      [
        "il",
        "ity"
      ],
      [
        "T",
        "h"
      ],
      [
        "Ġth",
        "ree"
      ],
      [
        "Ġt",
        "ra"
      ],
      [
        "Ġqu",
        "estion"
      ],
      [
        "Ġwh",
        "y"
      ],
      [
        "ri",
        "ef"
      ],
      [
        "Ġcomple",
        "x"
      ],
      [
        "Ġlo",
        "ok"
      ],
      [
        "Ġa",
        "v"
      ],
      [
        "Ġp",
        "ar"
      ],
      [
        "Ġk",
        "now"
      ],
      [
        "c",
        "sv"
      ],
      [
        "1",
        "5"
      ],
      [
        "it",
        "ive"
      ],
      [
        "Ġ1",
        "5"
      ],
      [
        "Ġ<",
        "="
      ],
      [
        "Ġ",
        "ent"
      ],
      [
        "on",
        "d"
      ],
      [
        "Ġwith",
        "out"
      ],
      [
        "ent",
        "ial"
      ],
      [
        "Ġst",
        "ill"
      ],
      [
        "Ġnumb",
        "ers"
      ],
      [
        "Ġst",
        "and"
      ],
      [
        "F",
        "orm"
      ],
      [
        "\"",
        "."
      ],
      [
        "I",
        "f"
      ],
      [
        "ra",
        "ct"
      ],
      [
        "_",
        "{"
      ],
      [
        "Ġs",
        "y"
      ],
      [
        "Ġg",
        "re"
      ],
      [
        "o",
        "se"
      ],
      [
        "en",
        "e"
      ],
      [
        "Ġl",
        "ight"
      ],
      [
        "w",
        "ard"
      ],
      [
        "ar",
        "m"
      ],
      [
        "ak",
        "ing"
      ],
      [
        "or",
        "row"
      ],
      [
        "o",
        "st"
      ],
      [
        "c",
        "ache"
      ],
      [
        "Ġspe",
        "c"
      ],
      [
        "Ġwh",
        "ile"
      ],
      [
        "ic",
        "s"
      ],
      [
        "ot",
        "t"
      ],
      [
        "s",
        "ide"
      ],
      [
        "pt",
        "ion"
      ],
      [
        "t",
        "imes"
      ],
      [
        "b",
        "y"
      ],
      [
        "w",
        "n"
      ],
      [
        "Ġ",
        "i"
      ],
      [
        "ib",
        "le"
      ],
      [
        "ĠH",
        "ow"
      ],
      [
        "Ġs",
        "ide"
      ],
      [
        "Ġb",
        "et"
      ],
      [
        "f",
        "ect"
      ],
      [
        "Ġo",
        "pen"
      ],
      [
        "er",
        "m"
      ],
      [
        "Ġm",
        "ight"
      ],
      [
        "Ġout",
        "put"
      ],
      [
        "h",
        "ing"
      ],
      [
        "ĠA",
        "l"
      ],
      [
        "ing",
        "s"
      ],
      [
        "ar",
        "i"
      ],
      [
        "Ġb",
        "l"
      ],
      [
        "..",
        "."
      ],
      [
        "en",
        "g"
      ],
      [
        "ĠSt",
        "ate"
      ],
      [
        "e",
        "o"
      ],
      [
        "Ġt",
        "em"
      ],
      [
        "Ġd",
        "i"
      ],
      [
        "it",
        "ial"
      ],
      [
        "Ġcon",
        "c"
      ],
      [
        "?",
        "\""
      ],
      [
        "ol",
        "og"
      ],
      [
        "erg",
        "y"
      ],
      [
        "l",
        "ight"
      ],
      [
        "v",
        "ed"
      ],
      [
        "Ġem",
        "pty"
      ],
      [
        "Ġr",
        "un"
      ],
      [
        "Ġ",
        "{"
      ],
      [
        "Ġne",
        "xt"
      ],
      [
        "im",
        "it"
      ],
      [
        "ĠY",
        "ou"
      ],
      [
        "I",
        "n"
      ],
      [
        "Ġcom",
        "p"
      ],
      [
        "Ġclear",
        "ly"
      ],
      [
        "Ġe",
        "l"
      ],
      [
        "(",
        "'"
      ],
      [
        "Ġcall",
        "s"
      ],
      [
        "id",
        "d"
      ],
      [
        "Ġst",
        "ate"
      ],
      [
        "Ġsol",
        "ution"
      ],
      [
        "al",
        "ue"
      ],
      [
        "Ġm",
        "onth"
      ],
      [
        "ĠW",
        "h"
      ],
      [
        "Ġprom",
        "pt"
      ],
      [
        "Ġd",
        "id"
      ],
      [
        "ĠP",
        "M"
      ],
      [
        "ut",
        "e"
      ],
      [
        "ĠE",
        "n"
      ],
      [
        "$",
        "$"
      ],
      [
        "ic",
        "ally"
      ],
      [
        "Ġe",
        "le"
      ],
      [
        "Ġa",
        "d"
      ],
      [
        "Ġrecur",
        "sive"
      ],
      [
        "Ġre",
        "al"
      ],
      [
        "il",
        "d"
      ],
      [
        "ĠH",
        "e"
      ],
      [
        "Ġin",
        "c"
      ],
      [
        "Ġmil",
        "es"
      ],
      [
        "s",
        "ure"
      ],
      [
        "Ġl",
        "ar"
      ],
      [
        "**",
        ":"
      ],
      [
        "Ġc",
        "ache"
      ],
      [
        "k",
        "ing"
      ],
      [
        "l",
        "ing"
      ],
      [
        "y",
        "p"
      ],
      [
        "Ġm",
        "od"
      ],
      [
        "Ġsh",
        "ow"
      ],
      [
        "es",
        "sion"
      ],
      [
        "ay",
        "be"
      ],
      [
        "Ġp",
        "art"
      ],
      [
        "ri",
        "end"
      ],
      [
        "S",
        "V"
      ],
      [
        "le",
        "ase"
      ],
      [
        "l",
        "ess"
      ],
      [
        "Ġv",
        "olume"
      ],
      [
        "Ġval",
        "ues"
      ],
      [
        ")",
        ":**"
      ],
      [
        "Ġl",
        "ong"
      ],
      [
        "re",
        "t"
      ],
      [
        "w",
        "ay"
      ],
      [
        "Ġtr",
        "ans"
      ],
      [
        "Draft",
        "ing"
      ],
      [
        "Ġhe",
        "l"
      ],
      [
        "in",
        "es"
      ],
      [
        "Ġlo",
        "g"
      ],
      [
        "ĠT",
        "otal"
      ],
      [
        "or",
        "s"
      ],
      [
        "s",
        "um"
      ],
      [
        "ll",
        "ow"
      ],
      [
        "Ġf",
        "ind"
      ],
      [
        "alue",
        "Error"
      ],
      [
        "ent",
        "s"
      ],
      [
        "Q",
        "u"
      ],
      [
        "Ġw",
        "rite"
      ],
      [
        "Ġsc",
        "ript"
      ],
      [
        "ra",
        "ph"
      ],
      [
        "Ġreturn",
        "s"
      ],
      [
        "Ġl",
        "ine"
      ],
      [
        "Ġequ",
        "ation"
      ],
      [
        "Ġagain",
        "st"
      ],
      [
        "Ġa",
        "p"
      ],
      [
        "Ġm",
        "ake"
      ],
      [
        "o",
        "od"
      ],
      [
        "Ġappro",
        "ach"
      ],
      [
        "Ġo",
        "ld"
      ],
      [
        "pl",
        "ac"
      ],
      [
        "'",
        ","
      ],
      [
        "Ġc",
        "ol"
      ],
      [
        "F",
        "inal"
      ],
      [
        "ver",
        "s"
      ],
      [
        "Ġ5",
        "0"
      ],
      [
        "ĠS",
        "ince"
      ],
      [
        "ĠF",
        "or"
      ],
      [
        "r",
        "id"
      ],
      [
        "Ġsp",
        "ace"
      ],
      [
        "per",
        "ature"
      ],
      [
        "s",
        "ales"
      ],
      [
        "Ġs",
        "um"
      ],
      [
        "ĠC",
        "SV"
      ],
      [
        "Ġd",
        "et"
      ],
      [
        "pt",
        "im"
      ],
      [
        "Ġcomplex",
        "ity"
      ],
      [
        "ĠS",
        "h"
      ],
      [
        "ro",
        "ss"
      ],
      [
        "v",
        "es"
      ],
      [
        "Ġval",
        "ue"
      ],
      [
        "u",
        "ll"
      ],
      [
        "Ġl",
        "it"
      ],
      [
        "Ġpro",
        "blem"
      ],
      [
        "Ġm",
        "at"
      ],
      [
        "Ġt",
        "urn"
      ],
      [
        "Ġs",
        "ays"
      ],
      [
        "e",
        "k"
      ],
      [
        "Ġb",
        "rief"
      ],
      [
        "ĠA",
        "n"
      ],
      [
        "Ġ",
        "oun"
      ],
      [
        "Ġs",
        "ome"
      ],
      [
        "Ġst",
        "ring"
      ],
      [
        "Ġe",
        "ff"
      ],
      [
        "Ġa",
        "verage"
      ],
      [
        "9",
        "9"
      ],
      [
        "i",
        "ed"
      ],
      [
        "c",
        "ur"
      ],
      [
        "Ġre",
        "g"
      ],
      [
        "Ġc",
        "sv"
      ],
      [
        "he",
        "d"
      ],
      [
        "ĠN",
        "ame"
      ],
      [
        "Ġd",
        "el"
      ],
      [
        "Ġc",
        "alcul"
      ],
      [
        "Ġs",
        "omet"
      ],
      [
        "p",
        "ro"
      ],
      [
        "res",
        "s"
      ],
      [
        "Ġres",
        "pon"
      ],
      [
        "ot",
        "s"
      ],
      [
        "Ġh",
        "um"
      ],
      [
        "\"",
        ","
      ],
      [
        "Ġmis",
        "sing"
      ],
      [
        "Ġ",
        "x"
      ],
      [
        "Ġf",
        "ile"
      ],
      [
        "se",
        "l"
      ],
      [
        "i",
        "an"
      ],
      [
        "1",
        "00"
      ],
      [
        "olum",
        "n"
      ],
      [
        "ter",
        "day"
      ],
      [
        "ĠN",
        "e"
      ],
      [
        "o",
        "c"
      ],
      [
        "r",
        "on"
      ],
      [
        "Ġspec",
        "ific"
      ],
      [
        "o",
        "ol"
      ],
      [
        "Ġc",
        "r"
      ],
      [
        "Ġ",
        ">"
      ],
      [
        "Ġo",
        "b"
      ],
      [
        "Ġwe",
        "re"
      ],
      [
        "3",
        "5"
      ],
      [
        "id",
        "es"
      ],
      [
        "Ġgiv",
        "en"
      ],
      [
        "ĠN",
        "o"
      ],
      [
        "at",
        "or"
      ],
      [
        "eng",
        "th"
      ],
      [
        "Ġl",
        "imit"
      ],
      [
        "ĠEx",
        "pl"
      ],
      [
        "e",
        "ad"
      ],
      [
        "Ġ",
        "âĢĶ"
      ],
      [
        "Ġex",
        "t"
      ],
      [
        "ru",
        "ct"
      ],
      [
        "ul",
        "ate"
      ],
      [
        ")",
        "="
      ],
      [
        ".",
        ","
      ],
      [
        "ter",
        "s"
      ],
      [
        "Ġcomput",
        "e"
      ],
      [
        "Ġ`",
        "``"
      ],
      [
        "Ġ",
        "end"
      ],
      [
        "Ġm",
        "u"
      ],
      [
        "a",
        "ult"
      ],
      [
        "Ġav",
        "o"
      ],
      [
        "Ġre",
        "qu"
      ],
      [
        "Ġy",
        "es"
      ],
      [
        "ro",
        "p"
      ],
      [
        "Ġpr",
        "ice"
      ],
      [
        "Ġto",
        "day"
      ],
      [
        "e",
        "x"
      ],
      [
        "3",
        "0"
      ],
      [
        "Ġpers",
        "on"
      ],
      [
        "Ġbre",
        "ak"
      ],
      [
        "Ġimp",
        "ro"
      ],
      [
        "i",
        "ly"
      ],
      [
        "ent",
        "ify"
      ],
      [
        "`",
        "."
      ],
      [
        "ce",
        "pt"
      ],
      [
        "Ġ$",
        "\\"
      ],
      [
        "w",
        "rite"
      ],
      [
        "Ġme",
        "ans"
      ],
      [
        "ay",
        "a"
      ],
      [
        "--",
        "--"
      ],
      [
        "Ġc",
        "olumn"
      ],
      [
        "Ġh",
        "ome"
      ],
      [
        "C",
        "on"
      ],
      [
        "Ġ",
        "er"
      ],
      [
        "ain",
        "ing"
      ],
      [
        "st",
        "and"
      ],
      [
        "i",
        "ence"
      ],
      [
        "d",
        "ate"
      ],
      [
        "at",
        "her"
      ],
      [
        "le",
        "ction"
      ],
      [
        "Ġc",
        "ity"
      ],
      [
        "ab",
        "ility"
      ],
      [
        "Ġwe",
        "ight"
      ],
      [
        "Ġen",
        "ergy"
      ],
      [
        "Ġf",
        "ast"
      ],
      [
        "ĠA",
        "M"
      ],
      [
        "Ġs",
        "qu"
      ],
      [
        "Ġbe",
        "h"
      ],
      [
        "Ġfe",
        "el"
      ],
      [
        "at",
        "ur"
      ],
      [
        "s",
        "er"
      ],
      [
        "f",
        "ession"
      ],
      [
        "if",
        "fe"
      ],
      [
        "Ġstand",
        "ard"
      ],
      [
        "Ġimp",
        "ort"
      ],
      [
        "Ġ1",
        "00"
      ],
      [
        "Ġw",
        "al"
      ],
      [
        "Ġh",
        "igh"
      ],
      [
        "ic",
        "ient"
      ],
      [
        "Ġl",
        "a"
      ],
      [
        "Ġs",
        "un"
      ],
      [
        "am",
        "ple"
      ],
      [
        "Ġin",
        "v"
      ],
      [
        "2",
        "3"
      ],
      [
        "Ġch",
        "ang"
      ],
      [
        "c",
        "om"
      ],
      [
        "Ġlo",
        "op"
      ],
      [
        "Ġt",
        "est"
      ],
      [
        "as",
        "ed"
      ],
      [
        "Ġpro",
        "duct"
      ],
      [
        "ĠV",
        "alueError"
      ],
      [
        "Ġt",
        "ri"
      ],
      [
        "ate",
        "g"
      ],
      [
        "Ġsm",
        "all"
      ],
      [
        "ra",
        "ints"
      ],
      [
        "Ġbe",
        "en"
      ],
      [
        "Ġhel",
        "p"
      ],
      [
        "en",
        "er"
      ],
      [
        "Ġmet",
        "ers"
      ],
      [
        "i",
        "pp"
      ],
      [
        "ĠP",
        "ol"
      ],
      [
        "Ġpos",
        "itive"
      ],
      [
        "Ġc",
        "re"
      ],
      [
        "t",
        "o"
      ],
      [
        "Ġsomet",
        "hing"
      ],
      [
        "Ġs",
        "ent"
      ],
      [
        "Ġus",
        "es"
      ],
      [
        "s",
        "c"
      ],
      [
        "o",
        "b"
      ],
      [
        "e",
        "e"
      ],
      [
        "ar",
        "s"
      ],
      [
        "Ġwor",
        "d"
      ],
      [
        ".",
        "*"
      ],
      [
        "fession",
        "al"
      ],
      [
        "Â",
        "°"
      ],
      [
        "em",
        "s"
      ],
      [
        "Ġm",
        "ention"
      ],
      [
        "ard",
        "en"
      ],
      [
        "Ġ",
        "&"
      ],
      [
        "as",
        "h"
      ],
      [
        "qu",
        "e"
      ],
      [
        "o",
        "ve"
      ],
      [
        "ad",
        "er"
      ],
      [
        "Ġb",
        "r"
      ],
      [
        "Ġequ",
        "al"
      ],
      [
        ",",
        "\""
      ],
      [
        "Ġin",
        "clude"
      ],
      [
        "Ġb",
        "ott"
      ],
      [
        "Ġo",
        "ptim"
      ],
      [
        "Ġmu",
        "ch"
      ],
      [
        "er",
        "y"
      ],
      [
        "Ġto",
        "m"
      ],
      [
        "t",
        "ed"
      ],
      [
        "Ġe",
        "ven"
      ],
      [
        "(",
        ")"
      ],
      [
        "Ġs",
        "ales"
      ],
      [
        "ĠTh",
        "at"
      ],
      [
        "an",
        "k"
      ],
      [
        "Form",
        "ulate"
      ],
      [
        "et",
        "ing"
      ],
      [
        "Ġcomple",
        "te"
      ],
      [
        "Ġ",
        "Qu"
      ],
      [
        "Ġsu",
        "pp"
      ],
      [
        "ĠThe",
        "re"
      ],
      [
        "he",
        "re"
      ],
      [
        "Ġt",
        "one"
      ],
      [
        "Ġo",
        "ther"
      ],
      [
        "Ġper",
        "fect"
      ],
      [
        "eo",
        "ple"
      ],
      [
        "e",
        "ver"
      ],
      [
        "at",
        "ic"
      ],
      [
        "c",
        "y"
      ],
      [
        "Ġyes",
        "terday"
      ],
      [
        "i",
        "ous"
      ],
      [
        "we",
        "en"
      ],
      [
        "Ġdes",
        "c"
      ],
      [
        "Ġread",
        "er"
      ],
      [
        "ĠA",
        "I"
      ],
      [
        "##",
        "#"
      ],
      [
        "Ġs",
        "low"
      ],
      [
        "m",
        "e"
      ],
      [
        "Ġdoes",
        "n"
      ],
      [
        "el",
        "t"
      ],
      [
        "sel",
        "f"
      ],
      [
        "Ġwor",
        "ks"
      ],
      [
        "Ġtem",
        "perature"
      ],
      [
        "le",
        "t"
      ],
      [
        "ain",
        "s"
      ],
      [
        "Ġdire",
        "ct"
      ],
      [
        "i",
        "er"
      ],
      [
        "Ġf",
        "in"
      ],
      [
        "Ġbet",
        "ween"
      ],
      [
        "n",
        "ot"
      ],
      [
        "Ġsim",
        "ple"
      ],
      [
        "Ġd",
        "iffe"
      ],
      [
        "Ġm",
        "em"
      ],
      [
        "Ġw",
        "ay"
      ],
      [
        "ĠW",
        "ait"
      ],
      [
        "ou",
        "se"
      ],
      [
        "c",
        "ed"
      ],
      [
        "ĠĠĠĠ",
        "Ġ"
      ],
      [
        "Ġac",
        "ross"
      ],
      [
        "Ġt",
        "ake"
      ],
      [
        "Ġcon",
        "ver"
      ],
      [
        "Ġre",
        "venue"
      ],
      [
        "Ġst",
        "r"
      ],
      [
        "Ġg",
        "l"
      ],
      [
        "Ġs",
        "ign"
      ],
      [
        "Ġw",
        "rit"
      ],
      [
        "t",
        "en"
      ],
      [
        "ail",
        "s"
      ],
      [
        "ĠPol",
        "ish"
      ],
      [
        "Ġw",
        "ind"
      ],
      [
        "Ġhe",
        "av"
      ],
      [
        "$",
        ")"
      ],
      [
        "ib",
        "r"
      ],
      [
        "Ġer",
        "ror"
      ],
      [
        "b",
        "er"
      ],
      [
        "ie",
        "ld"
      ],
      [
        "Re",
        "view"
      ],
      [
        "Ġdi",
        "ction"
      ],
      [
        "f",
        "ile"
      ],
      [
        "in",
        "s"
      ],
      [
        "Ġrow",
        "s"
      ],
      [
        "Ġspe",
        "ed"
      ],
      [
        "Ġm",
        "aybe"
      ],
      [
        "b",
        "o"
      ],
      [
        "Ġse",
        "e"
      ],
      [
        "ĠS",
        "he"
      ],
      [
        "os",
        "s"
      ],
      [
        "Ġn",
        "on"
      ],
      [
        "Ġs",
        "il"
      ],
      [
        "ul",
        "a"
      ],
      [
        "ur",
        "ing"
      ],
      [
        "1",
        "1"
      ],
      [
        "Ġpro",
        "ject"
      ],
      [
        "Y",
        "ou"
      ],
      [
        "Ġdef",
        "ault"
      ],
      [
        "Ġp",
        "eople"
      ],
      [
        "Ġex",
        "pon"
      ],
      [
        "Ġfo",
        "llow"
      ],
      [
        "`",
        ","
      ],
      [
        "d",
        "entify"
      ],
      [
        "i",
        "red"
      ],
      [
        "Ġact",
        "ually"
      ],
      [
        "Ġar",
        "r"
      ],
      [
        "m",
        "ed"
      ],
      [
        "ĠK",
        "e"
      ],
      [
        "Ġc",
        "ase"
      ],
      [
        "riend",
        "ly"
      ],
      [
        "2",
        "5"
      ],
      [
        "T",
        "o"
      ],
      [
        "Ġinteg",
        "er"
      ],
      [
        "ĠC",
        "om"
      ],
      [
        "tern",
        "ative"
      ],
      [
        "Ġst",
        "ory"
      ],
      [
        "ut",
        "put"
      ],
      [
        "Ġr",
        "ange"
      ],
      [
        "Ġg",
        "arden"
      ],
      [
        "a",
        "ir"
      ],
      [
        "Ġpre",
        "v"
      ],
      [
        "Ġlo",
        "c"
      ],
      [
        "Ġg",
        "ra"
      ],
      [
        "Ġs",
        "ur"
      ],
      [
        "ction",
        "s"
      ],
      [
        "}",
        "}{"
      ],
      [
        "Ġwe",
        "ek"
      ],
      [
        "id",
        "ed"
      ],
      [
        "S",
        "o"
      ],
      [
        "Ġke",
        "y"
      ],
      [
        "Ġdep",
        "th"
      ],
      [
        "as",
        "es"
      ],
      [
        "d",
        "ition"
      ],
      [
        "Ġel",
        "se"
      ],
      [
        "Ġ",
        "|"
      ],
      [
        "ir",
        "d"
      ],
      [
        "ĠC",
        "h"
      ],
      [
        "Ġst",
        "ore"
      ],
      [
        "Ġex",
        "p"
      ],
      [
        "Ġdiction",
        "ary"
      ],
      [
        "ad",
        "e"
      ],
      [
        "Ġcle",
        "an"
      ],
      [
        "Ġdis",
        "plac"
      ],
      [
        "t",
        "y"
      ],
      [
        "Ġpro",
        "v"
      ],
      [
        "l",
        "ru"
      ],
      [
        "Ġflo",
        "at"
      ],
      [
        "Ġtom",
        "orrow"
      ],
      [
        "Ġd",
        "ate"
      ],
      [
        "n",
        "er"
      ],
      [
        "0",
        "1"
      ],
      [
        "em",
        "ent"
      ],
      [
        "Ġper",
        "form"
      ],
      [
        "Ġs",
        "l"
      ],
      [
        "st",
        "ep"
      ],
      [
        "w",
        "h"
      ],
      [
        "c",
        "o"
      ],
      [
        "Ġrespon",
        "se"
      ],
      [
        "o",
        "y"
      ],
      [
        "ar",
        "a"
      ],
      [
        "Ġd",
        "ou"
      ],
      [
        "Ġth",
        "ough"
      ],
      [
        "read",
        "y"
      ],
      [
        "Ġte",
        "am"
      ],
      [
        "Ġconst",
        "raints"
      ],
      [
        "ate",
        "ly"
      ],
      [
        "2",
        "00"
      ],
      [
        "Ġre",
        "l"
      ],
      [
        "'",
        "m"
      ],
      [
        "ĠM",
        "aya"
      ],
      [
        "Ġ",
        "Ã"
      ],
      [
        "Ġle",
        "ad"
      ],
      [
        "Ġs",
        "ing"
      ],
      [
        "a",
        "red"
      ],
      [
        "Ġpl",
        "an"
      ],
      [
        "i",
        "a"
      ],
      [
        "el",
        "s"
      ],
      [
        "ĠT",
        "ime"
      ],
      [
        "Ġc",
        "e"
      ],
      [
        "Ġd",
        "ri"
      ],
      [
        "Ġd",
        "on"
      ],
      [
        "Ġam",
        "ount"
      ],
      [
        "rid",
        "ay"
      ],
      [
        "ad",
        "ow"
      ],
      [
        "ow",
        "er"
      ],
      [
        "Ġte",
        "ch"
      ],
      [
        "r",
        "ib"
      ],
      [
        "Ġin",
        "put"
      ],
      [
        "ec",
        "ause"
      ],
      [
        "Ġo",
        "wn"
      ],
      [
        "Ġlar",
        "ge"
      ],
      [
        "p",
        "ath"
      ],
      [
        "ĠPro",
        "vide"
      ],
      [
        "Ġt",
        "imes"
      ],
      [
        "ĠF",
        "e"
      ],
      [
        "in",
        "ing"
      ],
      [
        "Ġf",
        "ix"
      ],
      [
        "on",
        "s"
      ],
      [
        "ĠC",
        "heck"
      ],
      [
        "pl",
        "es"
      ],
      [
        "che",
        "s"
      ],
      [
        "Ġg",
        "old"
      ],
      [
        "am",
        "p"
      ],
      [
        "ĠO",
        "r"
      ],
      [
        "t",
        "le"
      ],
      [
        "Ġh",
        "app"
      ],
      [
        "Ġtr",
        "y"
      ],
      [
        "Ġde",
        "ep"
      ],
      [
        "as",
        "k"
      ],
      [
        "ple",
        "ment"
      ],
      [
        "Ġc",
        "al"
      ],
      [
        "ĠW",
        "hen"
      ],
      [
        "Ġin",
        "side"
      ],
      [
        "Ġstep",
        "s"
      ],
      [
        "Ġph",
        "ys"
      ],
      [
        "t",
        "em"
      ],
      [
        "d",
        "own"
      ],
      [
        "Ġch",
        "ar"
      ],
      [
        "Ġ1",
        "1"
      ],
      [
        "et",
        "s"
      ],
      [
        "is",
        "ion"
      ],
      [
        "Ġa",
        "ir"
      ],
      [
        "Ġd",
        "a"
      ],
      [
        "Ġhand",
        "le"
      ],
      [
        "Ġsy",
        "st"
      ],
      [
        "ag",
        "raph"
      ],
      [
        "ĠSt",
        "ep"
      ],
      [
        "ust",
        "om"
      ],
      [
        "Ġsqu",
        "are"
      ],
      [
        "W",
        "h"
      ],
      [
        "w",
        "ays"
      ],
      [
        "4",
        "0"
      ],
      [
        "ĠThe",
        "y"
      ],
      [
        "Ġor",
        "der"
      ],
      [
        "Ġm",
        "ath"
      ],
      [
        "i",
        "or"
      ],
      [
        "Ġch",
        "ange"
      ],
      [
        "Ġavo",
        "id"
      ],
      [
        "\"",
        ")"
      ],
      [
        "st",
        "r"
      ],
      [
        "w",
        "ise"
      ],
      [
        "Ġb",
        "lock"
      ],
      [
        "ĠExpl",
        "ain"
      ],
      [
        "Ġm",
        "ark"
      ],
      [
        "Ġthe",
        "se"
      ],
      [
        "Ġg",
        "ear"
      ],
      [
        "Ġal",
        "ready"
      ],
      [
        "Ġon",
        "ce"
      ],
      [
        "Ġver",
        "y"
      ],
      [
        "6",
        "0"
      ],
      [
        "er",
        "o"
      ],
      [
        "'",
        "d"
      ],
      [
        "y",
        "pe"
      ],
      [
        "Ġcorrect",
        "ed"
      ],
      [
        "Ġs",
        "ort"
      ],
      [
        "Ġf",
        "il"
      ],
      [
        "Ġc",
        "he"
      ],
      [
        "Ġre",
        "du"
      ],
      [
        "ef",
        "ine"
      ],
      [
        "n",
        "um"
      ],
      [
        "Ġp",
        "ass"
      ],
      [
        "ĠP",
        "lease"
      ],
      [
        "Ġra",
        "ise"
      ],
      [
        "Ġem",
        "ail"
      ],
      [
        "en",
        "cy"
      ],
      [
        "os",
        "ed"
      ],
      [
        "he",
        "s"
      ],
      [
        "Ġme",
        "an"
      ],
      [
        "Ġs",
        "w"
      ],
      [
        "Ġm",
        "ain"
      ],
      [
        "Ġpo",
        "int"
      ],
      [
        "Ġn",
        "ame"
      ],
      [
        "Ġs",
        "ides"
      ],
      [
        "Ġgo",
        "od"
      ],
      [
        "ir",
        "ror"
      ],
      [
        "ll",
        "ing"
      ],
      [
        "Ġfib",
        "onacci"
      ],
      [
        "ruct",
        "ure"
      ],
      [
        "Ġg",
        "u"
      ],
      [
        "Ġ6",
        "0"
      ],
      [
        "Ġf",
        "act"
      ],
      [
        "Ġpro",
        "fessional"
      ],
      [
        "Ġac",
        "c"
      ],
      [
        "ĠC",
        "alculate"
      ],
      [
        "ĠF",
        "riday"
      ],
      [
        "Ġ",
        "z"
      ],
      [
        "Ġsim",
        "pl"
      ],
      [
        "al",
        "s"
      ],
      [
        "Ġt",
        "akes"
      ],
      [
        "Ġimpro",
        "ve"
      ],
      [
        "Ġref",
        "lection"
      ],
      [
        "Ġsing",
        "le"
      ],
      [
        "Ġdid",
        "n"
      ],
      [
        "ool",
        "s"
      ],
      [
        "n",
        "o"
      ],
      [
        "ir",
        "th"
      ],
      [
        "'",
        "re"
      ],
      [
        "Ġa",
        "way"
      ],
      [
        "end",
        "ing"
      ],
      [
        "al",
        "f"
      ],
      [
        "Ġpres",
        "ent"
      ],
      [
        "]",
        ","
      ],
      [
        "im",
        "port"
      ],
      [
        "or",
        "k"
      ],
      [
        "Ġw",
        "arm"
      ],
      [
        "ĠA",
        "dd"
      ],
      [
        "s",
        "ed"
      ],
      [
        "Ġen",
        "g"
      ],
      [
        "ot",
        "e"
      ],
      [
        "Ġ\\",
        "("
      ],
      [
        "d",
        "ata"
      ],
      [
        "Ġresult",
        "s"
      ],
      [
        "Ġan",
        "al"
      ],
      [
        "ch",
        "an"
      ],
      [
        "Ġconc",
        "ise"
      ],
      [
        "Ġexpon",
        "ential"
      ],
      [
        "Ġcl",
        "ass"
      ],
      [
        "ĠThere",
        "fore"
      ],
      [
        "n",
        "ess"
      ],
      [
        "ĠS",
        "e"
      ],
      [
        "iv",
        "id"
      ],
      [
        "ren",
        "ce"
      ],
      [
        "Ġdist",
        "ance"
      ],
      [
        "Ġre",
        "st"
      ],
      [
        "oun",
        "ter"
      ],
      [
        "Ġm",
        "ass"
      ],
      [
        "Ġcon",
        "f"
      ],
      [
        "Ġ",
        "â"
      ],
      [
        "if",
        "ied"
      ],
      [
        "Ġbott",
        "om"
      ],
      [
        "Ġc",
        "a"
      ],
      [
        "4",
        "5"
      ],
      [
        "Ġis",
        "s"
      ],
      [
        "A",
        "l"
      ],
      [
        "ĠG",
        "ear"
      ],
      [
        "Ġform",
        "ula"
      ],
      [
        "er",
        "ing"
      ],
      [
        "Ġform",
        "at"
      ],
      [
        "Ġa",
        "ge"
      ],
      [
        "ues",
        "day"
      ],
      [
        "Ġ",
        "_"
      ],
      [
        "Ġc",
        "at"
      ],
      [
        "Ġen",
        "sure"
      ],
      [
        "p",
        "m"
      ],
      [
        "Ġs",
        "ince"
      ],
      [
        ")",
        "$"
      ],
      [
        "ic",
        "it"
      ],
      [
        "'",
        ":"
      ],
      [
        "Th",
        "is"
      ],
      [
        "now",
        "led"
      ],
      [
        "=",
        "'"
      ],
      [
        "ir",
        "c"
      ],
      [
        "ĊĠĠĠĠĠĠĠĠĠĠ",
        "ĠĠĠĠĠ"
      ],
      [
        "E",
        "x"
      ],
      [
        "le",
        "ct"
      ],
      [
        "Y",
        "Y"
      ],
      [
        "Ġin",
        "clud"
      ],
      [
        "al",
        "e"
      ],
      [
        "ct",
        "ools"
      ],
      [
        "Ġre",
        "d"
      ],
      [
        "ĠHow",
        "ever"
      ],
      [
        "Ġ2",
        "5"
      ],
      [
        "Ġcost",
        "s"
      ],
      [
        "Ġl",
        "ast"
      ],
      [
        "Ġsh",
        "adow"
      ],
      [
        "Ġas",
        "sum"
      ],
      [
        "Ġhe",
        "re"
      ],
      [
        "ĠO",
        "utput"
      ],
      [
        "Ġim",
        "plement"
      ],
      [
        "7",
        "5"
      ],
      [
        "ã",
        "Ĥ"
      ],
      [
        "che",
        "d"
      ],
      [
        "Ġent",
        "ire"
      ],
      [
        "Ġin",
        "d"
      ],
      [
        "Ġh",
        "old"
      ],
      [
        "ro",
        "du"
      ],
      [
        "ro",
        "y"
      ],
      [
        "Ġcont",
        "in"
      ],
      [
        "f",
        "ace"
      ],
      [
        "Ġas",
        "ks"
      ],
      [
        "Ġperform",
        "ance"
      ],
      [
        "ar",
        "ning"
      ],
      [
        "Ġw",
        "atch"
      ],
      [
        "in",
        "ed"
      ],
      [
        "Ġoun",
        "ces"
      ],
      [
        "t",
        "s"
      ],
      [
        "Ġbu",
        "ild"
      ],
      [
        "Ġp",
        "at"
      ],
      [
        "ab",
        "les"
      ],
      [
        "Y",
        "our"
      ],
      [
        "ar",
        "ds"
      ],
      [
        "ck",
        "nowled"
      ],
      [
        "av",
        "ing"
      ],
      [
        "a",
        "w"
      ],
      [
        "ci",
        "ent"
      ],
      [
        "Ġa",
        "ut"
      ],
      [
        "c",
        "ent"
      ],
      [
        "Ġg",
        "ive"
      ],
      [
        "Ġm",
        "irror"
      ],
      [
        "t",
        "ime"
      ],
      [
        "ou",
        "p"
      ],
      [
        "ar",
        "ing"
      ],
      [
        "s",
        "h"
      ],
      [
        "ot",
        "her"
      ],
      [
        "ci",
        "al"
      ],
      [
        "ff",
        "ee"
      ],
      [
        "Ġfast",
        "er"
      ],
      [
        "od",
        "y"
      ],
      [
        "Ġcon",
        "s"
      ],
      [
        "2",
        "4"
      ],
      [
        "Ġg",
        "row"
      ],
      [
        "Ġwant",
        "s"
      ],
      [
        "Ġbo",
        "at"
      ],
      [
        "C",
        "l"
      ],
      [
        "g",
        "er"
      ],
      [
        "Ġar",
        "ound"
      ],
      [
        "c",
        "us"
      ],
      [
        "Ġra",
        "in"
      ],
      [
        "Ġchang",
        "es"
      ],
      [
        "Ġin",
        "itial"
      ],
      [
        "W",
        "rite"
      ],
      [
        "Ġs",
        "er"
      ],
      [
        "Ġob",
        "ject"
      ],
      [
        "Ġb",
        "irth"
      ],
      [
        "Ġ4",
        "0"
      ],
      [
        "Ġm",
        "ax"
      ],
      [
        "Ġro",
        "ck"
      ],
      [
        "pl",
        "ot"
      ],
      [
        "ag",
        "es"
      ],
      [
        "1",
        "4"
      ],
      [
        "ut",
        "ure"
      ],
      [
        "Ġne",
        "ver"
      ],
      [
        "Ġb",
        "ase"
      ],
      [
        "atur",
        "day"
      ],
      [
        "Ġc",
        "are"
      ],
      [
        "Ġf",
        "ull"
      ],
      [
        "Ġl",
        "ength"
      ],
      [
        "lock",
        "wise"
      ],
      [
        "Ġd",
        "iv"
      ],
      [
        "Ġc",
        "or"
      ],
      [
        "ar",
        "r"
      ],
      [
        "I",
        "dentify"
      ],
      [
        "c",
        "on"
      ],
      [
        "Ġto",
        "p"
      ],
      [
        "Ġpr",
        "int"
      ],
      [
        "u",
        "g"
      ],
      [
        "Ġex",
        "per"
      ],
      [
        "Ġunder",
        "stand"
      ],
      [
        "Ġt",
        "re"
      ],
      [
        "Ġex",
        "pect"
      ],
      [
        "idd",
        "en"
      ],
      [
        "Ġdr",
        "ive"
      ],
      [
        "Ġcurrent",
        "ly"
      ],
      [
        "ra",
        "g"
      ],
      [
        "ĠT",
        "o"
      ],
      [
        "..",
        ".\""
      ],
      [
        "Ġk",
        "g"
      ],
      [
        "*",
        ":"
      ],
      [
        "c",
        "ing"
      ],
      [
        "Ġperfect",
        "ly"
      ],
      [
        "iv",
        "es"
      ],
      [
        "Ġ1",
        "50"
      ],
      [
        "Ġneed",
        "ed"
      ],
      [
        "Ġsec",
        "ond"
      ],
      [
        "Ġd",
        "ark"
      ],
      [
        "S",
        "ub"
      ],
      [
        "Ġpro",
        "b"
      ],
      [
        "ĠT",
        "uesday"
      ],
      [
        "ro",
        "x"
      ],
      [
        "idd",
        "le"
      ],
      [
        "Ġinst",
        "ead"
      ],
      [
        "t",
        "ic"
      ],
      [
        "v",
        "ent"
      ],
      [
        "Ġpar",
        "agraph"
      ],
      [
        "Ġal",
        "ways"
      ],
      [
        "=",
        "="
      ],
      [
        "Ġpres",
        "er"
      ],
      [
        "Ġs",
        "al"
      ],
      [
        "8",
        "0"
      ],
      [
        "Ġte",
        "xt"
      ],
      [
        "Ġp",
        "ul"
      ],
      [
        "Ġpro",
        "g"
      ],
      [
        "Ġprov",
        "ided"
      ],
      [
        "Ġus",
        "ed"
      ],
      [
        "Ġpos",
        "s"
      ],
      [
        "ar",
        "ch"
      ],
      [
        "Ġ",
        "ed"
      ],
      [
        "ĠW",
        "rite"
      ],
      [
        "Ġsyst",
        "em"
      ],
      [
        "Ġsk",
        "ip"
      ],
      [
        "ir",
        "on"
      ],
      [
        "form",
        "ation"
      ],
      [
        "is",
        "ed"
      ],
      [
        "ĠU",
        "n"
      ],
      [
        "Ġdiffe",
        "rent"
      ],
      [
        "as",
        "on"
      ],
      [
        "Ġw",
        "ait"
      ],
      [
        "le",
        "x"
      ],
      [
        "Ġn",
        "um"
      ],
      [
        "ĠFe",
        "b"
      ],
      [
        "r",
        "ation"
      ],
      [
        "Ġas",
        "k"
      ],
      [
        "erm",
        "ine"
      ],
      [
        "W",
        "ait"
      ],
      [
        "Ġsc",
        "ene"
      ],
      [
        "Ġg",
        "ener"
      ],
      [
        "ĠS",
        "un"
      ],
      [
        "Ġar",
        "g"
      ],
      [
        "ag",
        "on"
      ],
      [
        "ĠÃ",
        "Ĺ"
      ],
      [
        "Ġl",
        "ibr"
      ],
      [
        "ĠAl",
        "so"
      ],
      [
        "r",
        "atic"
      ],
      [
        "Ġre",
        "quest"
      ],
      [
        "Ġt",
        "erm"
      ],
      [
        "Ġre",
        "write"
      ],
      [
        "Ġl",
        "ab"
      ],
      [
        "Ġcon",
        "dition"
      ],
      [
        "$",
        ","
      ],
      [
        "is",
        "es"
      ],
      [
        "Ġto",
        "get"
      ],
      [
        "Ġtoget",
        "her"
      ],
      [
        "Ġinc",
        "re"
      ],
      [
        "pl",
        "t"
      ],
      [
        "pp",
        "ed"
      ],
      [
        "Ġbeh",
        "ind"
      ],
      [
        "Ġbu",
        "g"
      ],
      [
        "Ġe",
        "ar"
      ],
      [
        "Ġ",
        "âĢ"
      ],
      [
        "Ġ2",
        "00"
      ],
      [
        "ĠWh",
        "at"
      ],
      [
        "Ġn",
        "th"
      ],
      [
        "Ġexpl",
        "icit"
      ],
      [
        "Ġl",
        "if"
      ],
      [
        "pr",
        "ice"
      ],
      [
        "ĠIn",
        "clude"
      ],
      [
        "(",
        "\""
      ],
      [
        "Ġv",
        "ari"
      ],
      [
        "Ġo",
        "pp"
      ],
      [
        "Ġme",
        "chan"
      ],
      [
        "ram",
        "s"
      ],
      [
        "*",
        "."
      ],
      [
        "Ġ",
        "id"
      ],
      [
        "Ġmem",
        "ory"
      ],
      [
        "ac",
        "ing"
      ],
      [
        "um",
        "ent"
      ],
      [
        "Ġco",
        "ffee"
      ],
      [
        "Ġf",
        "ound"
      ],
      [
        "Ġpro",
        "cess"
      ],
      [
        "h",
        "o"
      ],
      [
        "h",
        "od"
      ],
      [
        "Ġf",
        "low"
      ],
      [
        "Ġle",
        "vel"
      ],
      [
        "Ġqu",
        "ick"
      ],
      [
        "un",
        "d"
      ],
      [
        "Ġas",
        "king"
      ],
      [
        "Ġse",
        "qu"
      ],
      [
        "Ġsa",
        "id"
      ],
      [
        "d",
        "ot"
      ],
      [
        "Ġb",
        "us"
      ],
      [
        "ad",
        "ratic"
      ],
      [
        "Ġtech",
        "n"
      ],
      [
        "Ġd",
        "rop"
      ],
      [
        "ene",
        "ath"
      ],
      [
        "Ġd",
        "ue"
      ],
      [
        "Ġdirect",
        "ly"
      ],
      [
        "P",
        "ro"
      ],
      [
        "o",
        "ice"
      ],
      [
        ")",
        ")"
      ],
      [
        "Ġex",
        "ample"
      ],
      [
        "Ġt",
        "yp"
      ],
      [
        "Ġto",
        "o"
      ],
      [
        "c",
        "dot"
      ],
      [
        "Ġst",
        "ri"
      ],
      [
        "er",
        "t"
      ],
      [
        "Ġeff",
        "icient"
      ],
      [
        "Ġth",
        "ink"
      ],
      [
        "Ġbo",
        "ok"
      ],
      [
        "Ġchar",
        "act"
      ],
      [
        "Ġsa",
        "fe"
      ],
      [
        "o",
        "ok"
      ],
      [
        "p",
        "ly"
      ],
      [
        "od",
        "ay"
      ],
      [
        "ĠQu",
        "estion"
      ],
      [
        "ĠS",
        "ub"
      ],
      [
        "ĠA",
        "t"
      ],
      [
        "Ġbre",
        "ath"
      ],
      [
        "r",
        "ic"
      ],
      [
        "app",
        "rox"
      ],
      [
        "re",
        "venue"
      ],
      [
        "av",
        "es"
      ],
      [
        "Ġt",
        "able"
      ],
      [
        "ĠA",
        "s"
      ],
      [
        "olog",
        "y"
      ],
      [
        "Ġn",
        "am"
      ],
      [
        "gg",
        "est"
      ],
      [
        ".",
        "**"
      ],
      [
        "Ġm",
        "ult"
      ],
      [
        ")",
        ":*"
      ],
      [
        "S",
        "ince"
      ],
      [
        "Ġm",
        "ph"
      ],
      [
        "i",
        "ver"
      ],
      [
        "Ġqu",
        "ant"
      ],
      [
        "Ġag",
        "o"
      ],
      [
        "Ġval",
        "id"
      ],
      [
        "ateg",
        "ory"
      ],
      [
        "ĠS",
        "aturday"
      ],
      [
        "ĠThe",
        "n"
      ],
      [
        "Ġdire",
        "ction"
      ],
      [
        "ur",
        "s"
      ],
      [
        "Ġg",
        "low"
      ],
      [
        "Ġb",
        "ased"
      ],
      [
        "Ġlo",
        "ve"
      ],
      [
        "Ġc",
        "ent"
      ],
      [
        "ĠKe",
        "ep"
      ],
      [
        "1",
        "000"
      ],
      [
        "ist",
        "ance"
      ],
      [
        "Ġtr",
        "ue"
      ],
      [
        "ar",
        "get"
      ],
      [
        "Ġnot",
        "e"
      ],
      [
        "i",
        "et"
      ],
      [
        "y",
        "es"
      ],
      [
        "im",
        "al"
      ],
      [
        "n",
        "am"
      ],
      [
        "Ġro",
        "om"
      ],
      [
        "r",
        "ight"
      ],
      [
        "i",
        "o"
      ],
      [
        "Ġw",
        "all"
      ],
      [
        "Ġtri",
        "p"
      ],
      [
        "g",
        "re"
      ],
      [
        "Ġ+",
        "="
      ],
      [
        "m",
        "at"
      ],
      [
        "om",
        "orrow"
      ],
      [
        "ap",
        "s"
      ],
      [
        "it",
        "ies"
      ],
      [
        "Ġdes",
        "ign"
      ],
      [
        "it",
        "her"
      ],
      [
        "ent",
        "ly"
      ],
      [
        "Ġh",
        "alf"
      ],
      [
        "Ġbirth",
        "day"
      ],
      [
        "en",
        "se"
      ],
      [
        "Ġ1",
        "4"
      ],
      [
        "pl",
        "ies"
      ],
      [
        "m",
        "onth"
      ],
      [
        "on",
        "es"
      ],
      [
        "Ġhe",
        "ad"
      ],
      [
        "Ġst",
        "ud"
      ],
      [
        "Ġ",
        "~"
      ],
      [
        "Ġn",
        "ight"
      ],
      [
        "o",
        "th"
      ],
      [
        "Ġ(",
        "\""
      ],
      [
        "ð",
        "Ł"
      ],
      [
        "Ġy",
        "et"
      ],
      [
        "t",
        "otal"
      ],
      [
        "un",
        "ch"
      ],
      [
        "an",
        "y"
      ],
      [
        "Ġst",
        "ack"
      ],
      [
        "Ġheav",
        "y"
      ],
      [
        "o",
        "is"
      ],
      [
        "Ġc",
        "ustom"
      ],
      [
        "Ġsu",
        "it"
      ],
      [
        "f",
        "or"
      ],
      [
        "ript",
        "ion"
      ],
      [
        "os",
        "ite"
      ],
      [
        "Ġsum",
        "m"
      ],
      [
        "ac",
        "es"
      ],
      [
        "Ġv",
        "is"
      ],
      [
        "Ġh",
        "idden"
      ],
      [
        "Ġke",
        "ys"
      ],
      [
        "Ġm",
        "or"
      ],
      [
        "Re",
        "ader"
      ],
      [
        "Ġm",
        "ar"
      ],
      [
        "Ġmo",
        "st"
      ],
      [
        "Ġso",
        "ft"
      ],
      [
        "Ġb",
        "al"
      ],
      [
        "Ġp",
        "ack"
      ],
      [
        "i",
        "que"
      ],
      [
        "ĠD",
        "o"
      ],
      [
        "Ġsp",
        "ent"
      ],
      [
        "ĠS",
        "ol"
      ],
      [
        "Ġ1",
        "000"
      ],
      [
        "Ġf",
        "ine"
      ],
      [
        "ĠM",
        "on"
      ],
      [
        "Ġs",
        "ay"
      ],
      [
        "Ġl",
        "ess"
      ],
      [
        "ef",
        "f"
      ],
      [
        "Ġc",
        "aus"
      ],
      [
        "Ġwind",
        "ow"
      ],
      [
        "Ġ2",
        "9"
      ],
      [
        "Ġm",
        "ess"
      ],
      [
        "Ġgl",
        "ass"
      ],
      [
        "o",
        "al"
      ],
      [
        "Ġsk",
        "y"
      ],
      [
        "Ġb",
        "ro"
      ],
      [
        "1",
        "50"
      ],
      [
        "s",
        "et"
      ],
      [
        "Ġwal",
        "k"
      ],
      [
        "m",
        "ax"
      ],
      [
        "ant",
        "ly"
      ],
      [
        "b",
        "r"
      ],
      [
        "ict",
        "Reader"
      ],
      [
        "C",
        "alculate"
      ],
      [
        "Ġoun",
        "ce"
      ],
      [
        "Ġe",
        "as"
      ],
      [
        "Ġpro",
        "t"
      ],
      [
        "up",
        "ois"
      ],
      [
        "I",
        "t"
      ],
      [
        "ird",
        "upois"
      ],
      [
        "Ġm",
        "ade"
      ],
      [
        "ĠP",
        "l"
      ],
      [
        "Ġtr",
        "ick"
      ],
      [
        "Ġ2",
        "8"
      ],
      [
        "Ġb",
        "eneath"
      ],
      [
        "st",
        "it"
      ],
      [
        "ĠIn",
        "itial"
      ],
      [
        "l",
        "ie"
      ],
      [
        "l",
        "ike"
      ],
      [
        "ĠP",
        "er"
      ],
      [
        "Ġs",
        "it"
      ],
      [
        "Ġqu",
        "adratic"
      ],
      [
        "Ġcal",
        "led"
      ],
      [
        ")",
        "**"
      ],
      [
        "yth",
        "ing"
      ],
      [
        "b",
        "ack"
      ],
      [
        "Ġst",
        "re"
      ],
      [
        "ck",
        "et"
      ],
      [
        "Ġpro",
        "du"
      ],
      [
        "S",
        "he"
      ],
      [
        "U",
        "n"
      ],
      [
        "5",
        "00"
      ],
      [
        "Ġde",
        "ad"
      ],
      [
        "en",
        "ces"
      ],
      [
        "Ġro",
        "ots"
      ],
      [
        "Ġp",
        "ast"
      ],
      [
        "Ġst",
        "one"
      ],
      [
        "ĠU",
        "se"
      ],
      [
        "ĠSh",
        "ow"
      ],
      [
        "}",
        "$."
      ],
      [
        "Ġg",
        "rams"
      ],
      [
        "ĠC",
        "ount"
      ],
      [
        "Ġdisc",
        "o"
      ],
      [
        "C",
        "om"
      ],
      [
        "med",
        "i"
      ],
      [
        "er",
        "n"
      ],
      [
        "ot",
        "ential"
      ],
      [
        "Ġbe",
        "ing"
      ],
      [
        "urs",
        "day"
      ]
    ]
  }
}